{"version": "1.0", "truncation": null, "padding": null, "added_tokens": [{"id": 13970, "content": "[PAD]", "single_word": false, "lstrip": false, "rstrip": false, "normalized": false, "special": true}, {"id": 29051, "content": "[UNK]", "single_word": false, "lstrip": false, "rstrip": false, "normalized": false, "special": true}, {"id": 4889, "content": "[CLS]", "single_word": false, "lstrip": false, "rstrip": false, "normalized": false, "special": true}, {"id": 2578, "content": "[SEP]", "single_word": false, "lstrip": false, "rstrip": false, "normalized": false, "special": true}, {"id": 10737, "content": "[MASK]", "single_word": false, "lstrip": false, "rstrip": false, "normalized": false, "special": true}], "normalizer": {"type": "BertNormalizer", "clean_text": true, "handle_chinese_chars": true, "strip_accents": null, "lowercase": true}, "pre_tokenizer": {"type": "BertPreTokenizer"}, "post_processor": {"type": "TemplateProcessing", "single": [{"SpecialToken": {"id": "[CLS]", "type_id": 0}}, {"Sequence": {"id": "A", "type_id": 0}}, {"SpecialToken": {"id": "[SEP]", "type_id": 0}}], "pair": [{"SpecialToken": {"id": "[CLS]", "type_id": 0}}, {"Sequence": {"id": "A", "type_id": 0}}, {"SpecialToken": {"id": "[SEP]", "type_id": 0}}, {"Sequence": {"id": "B", "type_id": 1}}, {"SpecialToken": {"id": "[SEP]", "type_id": 1}}], "special_tokens": {"[CLS]": {"id": "[CLS]", "ids": [101], "tokens": ["[CLS]"]}, "[SEP]": {"id": "[SEP]", "ids": [102], "tokens": ["[SEP]"]}}}, "decoder": {"type": "WordPiece", "prefix": "##", "cleanup": true}, "model": {"type": "WordPiece", "unk_token": "[UNK]", "continuing_subword_prefix": "##", "max_input_chars_per_word": 100, "vocab": {"[PAD]": 13970, "[unused0]": 16778, "[unused1]": 29078, "[unused2]": 16835, "[unused3]": 11803, "[unused4]": 23399, "[unused5]": 25731, "[unused6]": 22151, "[unused7]": 6362, "[unused8]": 386, "[unused9]": 29036, "[unused10]": 5311, "[unused11]": 23183, "[unused12]": 22911, "[unused13]": 47, "[unused14]": 29240, "[unused15]": 25158, "[unused16]": 25179, "[unused17]": 25495, "[unused18]": 15299, "[unused19]": 28636, "[unused20]": 14874, "[unused21]": 22878, "[unused22]": 9270, "[unused23]": 739, "[unused24]": 20572, "[unused25]": 7155, "[unused26]": 17359, "[unused27]": 14206, "[unused28]": 20741, "[unused29]": 13937, "[unused30]": 5212, "[unused31]": 2725, "[unused32]": 9462, "[unused33]": 9869, "[unused34]": 6662, "[unused35]": 28277, "[unused36]": 23270, "[unused37]": 1390, "[unused38]": 5258, "[unused39]": 28019, "[unused40]": 27101, "[unused41]": 2914, "[unused42]": 23381, "[unused43]": 29739, "[unused44]": 25784, "[unused45]": 17406, "[unused46]": 24204, "[unused47]": 4857, "[unused48]": 19106, "[unused49]": 4461, "[unused50]": 2583, "[unused51]": 26585, "[unused52]": 1333, "[unused53]": 13739, "[unused54]": 24237, "[unused55]": 27220, "[unused56]": 7218, "[unused57]": 10133, "[unused58]": 11799, "[unused59]": 8030, "[unused60]": 8053, "[unused61]": 26631, "[unused62]": 2921, "[unused63]": 7260, "[unused64]": 7132, "[unused65]": 21721, "[unused66]": 8840, "[unused67]": 5855, "[unused68]": 20732, "[unused69]": 30323, "[unused70]": 9463, "[unused71]": 1991, "[unused72]": 19324, "[unused73]": 22677, "[unused74]": 17959, "[unused75]": 27104, "[unused76]": 9470, "[unused77]": 3066, "[unused78]": 234, "[unused79]": 8795, "[unused80]": 12519, "[unused81]": 5685, "[unused82]": 28085, "[unused83]": 12440, "[unused84]": 26277, "[unused85]": 29119, "[unused86]": 5317, "[unused87]": 8617, "[unused88]": 5100, "[unused89]": 21041, "[unused90]": 14820, "[unused91]": 18532, "[unused92]": 21802, "[unused93]": 7539, "[unused94]": 22963, "[unused95]": 15756, "[unused96]": 23301, "[unused97]": 27466, "[unused98]": 20065, "[UNK]": 29051, "[CLS]": 4889, "[SEP]": 2578, "[MASK]": 10737, "[unused99]": 3325, "[unused100]": 24587, "[unused101]": 3636, "[unused102]": 22434, "[unused103]": 2750, "[unused104]": 17713, "[unused105]": 22370, "[unused106]": 21882, "[unused107]": 20137, "[unused108]": 4041, "[unused109]": 16944, "[unused110]": 15676, "[unused111]": 21702, "[unused112]": 1392, "[unused113]": 12958, "[unused114]": 10078, "[unused115]": 19776, "[unused116]": 24274, "[unused117]": 1816, "[unused118]": 27361, "[unused119]": 22948, "[unused120]": 28647, "[unused121]": 26482, "[unused122]": 9235, "[unused123]": 29302, "[unused124]": 14144, "[unused125]": 17573, "[unused126]": 7018, "[unused127]": 21605, "[unused128]": 11456, "[unused129]": 11797, "[unused130]": 4464, "[unused131]": 2222, "[unused132]": 10199, "[unused133]": 16307, "[unused134]": 20939, "[unused135]": 24510, "[unused136]": 24545, "[unused137]": 9607, "[unused138]": 20814, "[unused139]": 20842, "[unused140]": 27373, "[unused141]": 26265, "[unused142]": 12963, "[unused143]": 4538, "[unused144]": 7528, "[unused145]": 23737, "[unused146]": 11296, "[unused147]": 12470, "[unused148]": 12177, "[unused149]": 6993, "[unused150]": 21488, "[unused151]": 6328, "[unused152]": 23471, "[unused153]": 8110, "[unused154]": 20950, "[unused155]": 27330, "[unused156]": 9283, "[unused157]": 12219, "[unused158]": 13163, "[unused159]": 28145, "[unused160]": 29932, "[unused161]": 24874, "[unused162]": 15553, "[unused163]": 22245, "[unused164]": 26052, "[unused165]": 8788, "[unused166]": 6275, "[unused167]": 13682, "[unused168]": 6465, "[unused169]": 7850, "[unused170]": 5542, "[unused171]": 13779, "[unused172]": 2785, "[unused173]": 15731, "[unused174]": 24942, "[unused175]": 7031, "[unused176]": 8780, "[unused177]": 4006, "[unused178]": 27949, "[unused179]": 16185, "[unused180]": 9293, "[unused181]": 4646, "[unused182]": 15071, "[unused183]": 14735, "[unused184]": 4067, "[unused185]": 21615, "[unused186]": 2395, "[unused187]": 1903, "[unused188]": 9726, "[unused189]": 26121, "[unused190]": 18859, "[unused191]": 5182, "[unused192]": 5477, "[unused193]": 19805, "[unused194]": 920, "[unused195]": 13168, "[unused196]": 13990, "[unused197]": 7524, "[unused198]": 10220, "[unused199]": 8894, "[unused200]": 11973, "[unused201]": 9798, "[unused202]": 12285, "[unused203]": 11261, "[unused204]": 14419, "[unused205]": 4070, "[unused206]": 19502, "[unused207]": 26332, "[unused208]": 426, "[unused209]": 29201, "[unused210]": 28358, "[unused211]": 2635, "[unused212]": 18278, "[unused213]": 27756, "[unused214]": 18779, "[unused215]": 14374, "[unused216]": 13692, "[unused217]": 2697, "[unused218]": 23153, "[unused219]": 12650, "[unused220]": 7547, "[unused221]": 8925, "[unused222]": 22299, "[unused223]": 25193, "[unused224]": 26269, "[unused225]": 18598, "[unused226]": 25393, "[unused227]": 11252, "[unused228]": 6059, "[unused229]": 28076, "[unused230]": 22445, "[unused231]": 25889, "[unused232]": 24048, "[unused233]": 21548, "[unused234]": 4733, "[unused235]": 25350, "[unused236]": 13693, "[unused237]": 5511, "[unused238]": 24500, "[unused239]": 5546, "[unused240]": 765, "[unused241]": 21339, "[unused242]": 27031, "[unused243]": 29002, "[unused244]": 18228, "[unused245]": 24038, "[unused246]": 15958, "[unused247]": 2196, "[unused248]": 12551, "[unused249]": 23420, "[unused250]": 28397, "[unused251]": 24781, "[unused252]": 4151, "[unused253]": 7159, "[unused254]": 26544, "[unused255]": 26206, "[unused256]": 13679, "[unused257]": 9308, "[unused258]": 5144, "[unused259]": 1538, "[unused260]": 16108, "[unused261]": 24981, "[unused262]": 5298, "[unused263]": 15103, "[unused264]": 26223, "[unused265]": 7379, "[unused266]": 20054, "[unused267]": 28406, "[unused268]": 30007, "[unused269]": 6568, "[unused270]": 16720, "[unused271]": 1614, "[unused272]": 926, "[unused273]": 3336, "[unused274]": 3453, "[unused275]": 14581, "[unused276]": 7145, "[unused277]": 30474, "[unused278]": 4676, "[unused279]": 16136, "[unused280]": 17121, "[unused281]": 9700, "[unused282]": 21372, "[unused283]": 6320, "[unused284]": 12523, "[unused285]": 8248, "[unused286]": 10297, "[unused287]": 15858, "[unused288]": 30347, "[unused289]": 24227, "[unused290]": 4242, "[unused291]": 24807, "[unused292]": 29744, "[unused293]": 16776, "[unused294]": 17282, "[unused295]": 7938, "[unused296]": 21387, "[unused297]": 30303, "[unused298]": 3473, "[unused299]": 26570, "[unused300]": 18304, "[unused301]": 18375, "[unused302]": 26348, "[unused303]": 25003, "[unused304]": 28969, "[unused305]": 20553, "[unused306]": 17068, "[unused307]": 820, "[unused308]": 26057, "[unused309]": 19480, "[unused310]": 1331, "[unused311]": 263, "[unused312]": 10839, "[unused313]": 12101, "[unused314]": 24495, "[unused315]": 8464, "[unused316]": 20181, "[unused317]": 7716, "[unused318]": 25620, "[unused319]": 11793, "[unused320]": 6203, "[unused321]": 30435, "[unused322]": 13244, "[unused323]": 8513, "[unused324]": 30371, "[unused325]": 26220, "[unused326]": 27026, "[unused327]": 22215, "[unused328]": 11052, "[unused329]": 13320, "[unused330]": 29864, "[unused331]": 157, "[unused332]": 7385, "[unused333]": 13546, "[unused334]": 11680, "[unused335]": 5501, "[unused336]": 12413, "[unused337]": 2240, "[unused338]": 28082, "[unused339]": 2630, "[unused340]": 23896, "[unused341]": 2891, "[unused342]": 3403, "[unused343]": 13024, "[unused344]": 2782, "[unused345]": 7744, "[unused346]": 3059, "[unused347]": 6745, "[unused348]": 24517, "[unused349]": 794, "[unused350]": 4469, "[unused351]": 27096, "[unused352]": 19701, "[unused353]": 13533, "[unused354]": 19954, "[unused355]": 22919, "[unused356]": 567, "[unused357]": 9576, "[unused358]": 29668, "[unused359]": 1735, "[unused360]": 3378, "[unused361]": 26286, "[unused362]": 21331, "[unused363]": 4680, "[unused364]": 28086, "[unused365]": 5084, "[unused366]": 13611, "[unused367]": 20412, "[unused368]": 1489, "[unused369]": 12543, "[unused370]": 5070, "[unused371]": 3657, "[unused372]": 15999, "[unused373]": 16150, "[unused374]": 4198, "[unused375]": 27393, "[unused376]": 29617, "[unused377]": 2277, "[unused378]": 17149, "[unused379]": 17467, "[unused380]": 11987, "[unused381]": 13440, "[unused382]": 12021, "[unused383]": 26001, "[unused384]": 4286, "[unused385]": 11912, "[unused386]": 30370, "[unused387]": 17818, "[unused388]": 17162, "[unused389]": 9412, "[unused390]": 13445, "[unused391]": 12836, "[unused392]": 18789, "[unused393]": 8693, "[unused394]": 4760, "[unused395]": 16168, "[unused396]": 4010, "[unused397]": 16959, "[unused398]": 20911, "[unused399]": 8022, "[unused400]": 20045, "[unused401]": 16098, "[unused402]": 20053, "[unused403]": 11549, "[unused404]": 25420, "[unused405]": 25363, "[unused406]": 17347, "[unused407]": 24278, "[unused408]": 413, "[unused409]": 19198, "[unused410]": 24385, "[unused411]": 19779, "[unused412]": 27912, "[unused413]": 7589, "[unused414]": 14995, "[unused415]": 10548, "[unused416]": 22298, "[unused417]": 4941, "[unused418]": 23254, "[unused419]": 17945, "[unused420]": 10892, "[unused421]": 18894, "[unused422]": 15515, "[unused423]": 4546, "[unused424]": 23462, "[unused425]": 21192, "[unused426]": 1227, "[unused427]": 26799, "[unused428]": 3531, "[unused429]": 14369, "[unused430]": 1808, "[unused431]": 2977, "[unused432]": 12801, "[unused433]": 19486, "[unused434]": 5787, "[unused435]": 20198, "[unused436]": 12756, "[unused437]": 15717, "[unused438]": 19643, "[unused439]": 13232, "[unused440]": 20067, "[unused441]": 6201, "[unused442]": 1430, "[unused443]": 865, "[unused444]": 15296, "[unused445]": 21350, "[unused446]": 12382, "[unused447]": 3368, "[unused448]": 12216, "[unused449]": 4214, "[unused450]": 4203, "[unused451]": 29180, "[unused452]": 3294, "[unused453]": 7071, "[unused454]": 3351, "[unused455]": 10323, "[unused456]": 14774, "[unused457]": 2327, "[unused458]": 3670, "[unused459]": 11382, "[unused460]": 20791, "[unused461]": 25543, "[unused462]": 22117, "[unused463]": 7511, "[unused464]": 9711, "[unused465]": 3014, "[unused466]": 26941, "[unused467]": 13099, "[unused468]": 27552, "[unused469]": 7860, "[unused470]": 20808, "[unused471]": 18645, "[unused472]": 12136, "[unused473]": 11848, "[unused474]": 3307, "[unused475]": 23601, "[unused476]": 24694, "[unused477]": 10822, "[unused478]": 12146, "[unused479]": 13358, "[unused480]": 5341, "[unused481]": 8559, "[unused482]": 29391, "[unused483]": 11891, "[unused484]": 7164, "[unused485]": 15824, "[unused486]": 11918, "[unused487]": 25116, "[unused488]": 16047, "[unused489]": 13242, "[unused490]": 18471, "[unused491]": 21002, "[unused492]": 19669, "[unused493]": 11792, "[unused494]": 7469, "[unused495]": 20369, "[unused496]": 8013, "[unused497]": 24080, "[unused498]": 25405, "[unused499]": 21328, "[unused500]": 850, "[unused501]": 21113, "[unused502]": 9537, "[unused503]": 16910, "[unused504]": 13280, "[unused505]": 23446, "[unused506]": 4324, "[unused507]": 20421, "[unused508]": 11907, "[unused509]": 4247, "[unused510]": 28651, "[unused511]": 27032, "[unused512]": 7677, "[unused513]": 25998, "[unused514]": 29473, "[unused515]": 10581, "[unused516]": 2887, "[unused517]": 19379, "[unused518]": 3470, "[unused519]": 21216, "[unused520]": 5798, "[unused521]": 25958, "[unused522]": 4773, "[unused523]": 14971, "[unused524]": 9664, "[unused525]": 4916, "[unused526]": 21031, "[unused527]": 4159, "[unused528]": 10428, "[unused529]": 19241, "[unused530]": 18800, "[unused531]": 20188, "[unused532]": 8665, "[unused533]": 15683, "[unused534]": 2747, "[unused535]": 3289, "[unused536]": 13791, "[unused537]": 64, "[unused538]": 21670, "[unused539]": 20794, "[unused540]": 15818, "[unused541]": 252, "[unused542]": 18689, "[unused543]": 14067, "[unused544]": 2434, "[unused545]": 7633, "[unused546]": 28106, "[unused547]": 5024, "[unused548]": 15524, "[unused549]": 114, "[unused550]": 4426, "[unused551]": 1132, "[unused552]": 17060, "[unused553]": 21671, "[unused554]": 27809, "[unused555]": 27693, "[unused556]": 18613, "[unused557]": 2675, "[unused558]": 20683, "[unused559]": 7915, "[unused560]": 16648, "[unused561]": 25617, "[unused562]": 11753, "[unused563]": 9631, "[unused564]": 25953, "[unused565]": 12711, "[unused566]": 10023, "[unused567]": 5624, "[unused568]": 20687, "[unused569]": 18765, "[unused570]": 28985, "[unused571]": 3759, "[unused572]": 8155, "[unused573]": 14608, "[unused574]": 16924, "[unused575]": 11175, "[unused576]": 20632, "[unused577]": 9660, "[unused578]": 19862, "[unused579]": 20551, "[unused580]": 3948, "[unused581]": 2588, "[unused582]": 30171, "[unused583]": 18945, "[unused584]": 12363, "[unused585]": 27338, "[unused586]": 20319, "[unused587]": 30098, "[unused588]": 7088, "[unused589]": 21982, "[unused590]": 11951, "[unused591]": 22719, "[unused592]": 13715, "[unused593]": 25517, "[unused594]": 30167, "[unused595]": 27377, "[unused596]": 6431, "[unused597]": 15804, "[unused598]": 29566, "[unused599]": 3558, "[unused600]": 5523, "[unused601]": 6255, "[unused602]": 8923, "[unused603]": 23081, "[unused604]": 1301, "[unused605]": 8255, "[unused606]": 10421, "[unused607]": 3546, "[unused608]": 18798, "[unused609]": 5198, "[unused610]": 14663, "[unused611]": 1318, "[unused612]": 1691, "[unused613]": 7651, "[unused614]": 13757, "[unused615]": 19850, "[unused616]": 27851, "[unused617]": 2341, "[unused618]": 5678, "[unused619]": 16821, "[unused620]": 26885, "[unused621]": 25236, "[unused622]": 23322, "[unused623]": 23375, "[unused624]": 24697, "[unused625]": 6703, "[unused626]": 1764, "[unused627]": 30192, "[unused628]": 25083, "[unused629]": 21335, "[unused630]": 7247, "[unused631]": 29699, "[unused632]": 9702, "[unused633]": 21566, "[unused634]": 11931, "[unused635]": 15448, "[unused636]": 8800, "[unused637]": 5582, "[unused638]": 11376, "[unused639]": 29054, "[unused640]": 13734, "[unused641]": 16980, "[unused642]": 11513, "[unused643]": 20140, "[unused644]": 3975, "[unused645]": 29819, "[unused646]": 1284, "[unused647]": 3024, "[unused648]": 19187, "[unused649]": 27149, "[unused650]": 42, "[unused651]": 25877, "[unused652]": 12834, "[unused653]": 13987, "[unused654]": 14987, "[unused655]": 3770, "[unused656]": 8066, "[unused657]": 20299, "[unused658]": 12154, "[unused659]": 15788, "[unused660]": 10599, "[unused661]": 29626, "[unused662]": 28184, "[unused663]": 26704, "[unused664]": 23295, "[unused665]": 4136, "[unused666]": 6763, "[unused667]": 20582, "[unused668]": 19711, "[unused669]": 29238, "[unused670]": 10077, "[unused671]": 22205, "[unused672]": 9744, "[unused673]": 11581, "[unused674]": 3156, "[unused675]": 1832, "[unused676]": 7060, "[unused677]": 6372, "[unused678]": 16315, "[unused679]": 6006, "[unused680]": 29825, "[unused681]": 26656, "[unused682]": 4440, "[unused683]": 534, "[unused684]": 23773, "[unused685]": 11955, "[unused686]": 25469, "[unused687]": 26017, "[unused688]": 9655, "[unused689]": 11239, "[unused690]": 4863, "[unused691]": 9402, "[unused692]": 1039, "[unused693]": 19962, "[unused694]": 4399, "[unused695]": 8496, "[unused696]": 9465, "[unused697]": 13985, "[unused698]": 6592, "[unused699]": 10349, "[unused700]": 9713, "[unused701]": 29764, "[unused702]": 23298, "[unused703]": 12877, "[unused704]": 10588, "[unused705]": 7996, "[unused706]": 25838, "[unused707]": 17488, "[unused708]": 27749, "[unused709]": 26947, "[unused710]": 25849, "[unused711]": 19085, "[unused712]": 14794, "[unused713]": 21349, "[unused714]": 4104, "[unused715]": 10202, "[unused716]": 2571, "[unused717]": 4978, "[unused718]": 12763, "[unused719]": 2157, "[unused720]": 6724, "[unused721]": 13197, "[unused722]": 3791, "[unused723]": 18451, "[unused724]": 24055, "[unused725]": 8873, "[unused726]": 29401, "[unused727]": 8927, "[unused728]": 7001, "[unused729]": 27381, "[unused730]": 10105, "[unused731]": 5256, "[unused732]": 4811, "[unused733]": 23409, "[unused734]": 11233, "[unused735]": 5449, "[unused736]": 17931, "[unused737]": 13904, "[unused738]": 5649, "[unused739]": 9062, "[unused740]": 6096, "[unused741]": 14891, "[unused742]": 19248, "[unused743]": 19658, "[unused744]": 13306, "[unused745]": 9037, "[unused746]": 17339, "[unused747]": 3056, "[unused748]": 19521, "[unused749]": 1859, "[unused750]": 3239, "[unused751]": 8962, "[unused752]": 7499, "[unused753]": 22500, "[unused754]": 16632, "[unused755]": 658, "[unused756]": 23272, "[unused757]": 19322, "[unused758]": 21168, "[unused759]": 23803, "[unused760]": 23629, "[unused761]": 29123, "[unused762]": 24099, "[unused763]": 9399, "[unused764]": 19401, "[unused765]": 8794, "[unused766]": 20458, "[unused767]": 1620, "[unused768]": 27059, "[unused769]": 893, "[unused770]": 19785, "[unused771]": 29534, "[unused772]": 6033, "[unused773]": 7848, "[unused774]": 14292, "[unused775]": 27560, "[unused776]": 16273, "[unused777]": 12522, "[unused778]": 15990, "[unused779]": 4740, "[unused780]": 3222, "[unused781]": 27110, "[unused782]": 15520, "[unused783]": 10336, "[unused784]": 14371, "[unused785]": 5556, "[unused786]": 8221, "[unused787]": 29689, "[unused788]": 18691, "[unused789]": 29687, "[unused790]": 11888, "[unused791]": 14860, "[unused792]": 8552, "[unused793]": 21973, "[unused794]": 20205, "[unused795]": 24159, "[unused796]": 2452, "[unused797]": 25832, "[unused798]": 22312, "[unused799]": 15391, "[unused800]": 3541, "[unused801]": 18505, "[unused802]": 18423, "[unused803]": 24225, "[unused804]": 26902, "[unused805]": 6588, "[unused806]": 23491, "[unused807]": 29527, "[unused808]": 19829, "[unused809]": 9036, "[unused810]": 18948, "[unused811]": 15630, "[unused812]": 6753, "[unused813]": 775, "[unused814]": 27322, "[unused815]": 3295, "[unused816]": 9983, "[unused817]": 28805, "[unused818]": 7839, "[unused819]": 8732, "[unused820]": 8591, "[unused821]": 30381, "[unused822]": 19761, "[unused823]": 18016, "[unused824]": 24040, "[unused825]": 25853, "[unused826]": 14595, "[unused827]": 8960, "[unused828]": 16578, "[unused829]": 12235, "[unused830]": 29368, "[unused831]": 21571, "[unused832]": 20086, "[unused833]": 4045, "[unused834]": 30279, "[unused835]": 17553, "[unused836]": 14951, "[unused837]": 24868, "[unused838]": 9391, "[unused839]": 9675, "[unused840]": 30179, "[unused841]": 21764, "[unused842]": 26660, "[unused843]": 1806, "[unused844]": 4011, "[unused845]": 20709, "[unused846]": 18942, "[unused847]": 19453, "[unused848]": 25218, "[unused849]": 8943, "[unused850]": 30220, "[unused851]": 19072, "[unused852]": 14251, "[unused853]": 4080, "[unused854]": 13714, "[unused855]": 28745, "[unused856]": 496, "[unused857]": 26788, "[unused858]": 18893, "[unused859]": 28476, "[unused860]": 9671, "[unused861]": 27996, "[unused862]": 12651, "[unused863]": 22211, "[unused864]": 8188, "[unused865]": 19218, "[unused866]": 23466, "[unused867]": 16349, "[unused868]": 11388, "[unused869]": 23229, "[unused870]": 19230, "[unused871]": 3122, "[unused872]": 23769, "[unused873]": 15151, "[unused874]": 12515, "[unused875]": 21825, "[unused876]": 7398, "[unused877]": 5967, "[unused878]": 19762, "[unused879]": 15061, "[unused880]": 15096, "[unused881]": 8316, "[unused882]": 4141, "[unused883]": 9148, "[unused884]": 18133, "[unused885]": 22913, "[unused886]": 19494, "[unused887]": 3747, "[unused888]": 14756, "[unused889]": 14436, "[unused890]": 8785, "[unused891]": 28531, "[unused892]": 29806, "[unused893]": 25724, "[unused894]": 21107, "[unused895]": 12628, "[unused896]": 9243, "[unused897]": 21422, "[unused898]": 19671, "[unused899]": 15155, "[unused900]": 5826, "[unused901]": 21797, "[unused902]": 20223, "[unused903]": 20157, "[unused904]": 19881, "[unused905]": 897, "[unused906]": 7185, "[unused907]": 14580, "[unused908]": 6522, "[unused909]": 6141, "[unused910]": 16589, "[unused911]": 24193, "[unused912]": 28302, "[unused913]": 14413, "[unused914]": 20406, "[unused915]": 357, "[unused916]": 20436, "[unused917]": 3837, "[unused918]": 11111, "[unused919]": 17119, "[unused920]": 8572, "[unused921]": 12128, "[unused922]": 24409, "[unused923]": 29772, "[unused924]": 23152, "[unused925]": 15921, "[unused926]": 2510, "[unused927]": 9968, "[unused928]": 16508, "[unused929]": 20327, "[unused930]": 7296, "[unused931]": 8712, "[unused932]": 18675, "[unused933]": 14828, "[unused934]": 13449, "[unused935]": 17737, "[unused936]": 30426, "[unused937]": 22349, "[unused938]": 6769, "[unused939]": 16986, "[unused940]": 7408, "[unused941]": 29625, "[unused942]": 10544, "[unused943]": 6396, "[unused944]": 29667, "[unused945]": 4575, "[unused946]": 10751, "[unused947]": 4036, "[unused948]": 12264, "[unused949]": 852, "[unused950]": 4325, "[unused951]": 18539, "[unused952]": 1048, "[unused953]": 12614, "[unused954]": 16726, "[unused955]": 8562, "[unused956]": 3052, "[unused957]": 15743, "[unused958]": 6310, "[unused959]": 15041, "[unused960]": 29233, "[unused961]": 5721, "[unused962]": 23041, "[unused963]": 25110, "[unused964]": 9772, "[unused965]": 28038, "[unused966]": 19064, "[unused967]": 16033, "[unused968]": 16194, "[unused969]": 9196, "[unused970]": 4622, "[unused971]": 27319, "[unused972]": 3724, "[unused973]": 24360, "[unused974]": 17776, "[unused975]": 12137, "[unused976]": 3017, "[unused977]": 12517, "[unused978]": 5733, "[unused979]": 11364, "[unused980]": 26958, "[unused981]": 21529, "[unused982]": 26415, "[unused983]": 27804, "[unused984]": 17292, "[unused985]": 17117, "[unused986]": 25320, "[unused987]": 400, "[unused988]": 20547, "[unused989]": 6887, "[unused990]": 29660, "[unused991]": 26498, "[unused992]": 20849, "[unused993]": 5946, "!": 16553, "\"": 934, "#": 1592, "$": 19814, "%": 6978, "&": 5530, "'": 18923, "(": 1302, ")": 9546, "*": 9903, "+": 212, ",": 2687, "-": 19357, ".": 17397, "/": 5927, "0": 29244, "1": 20971, "2": 18123, "3": 12762, "4": 1018, "5": 8399, "6": 24802, "7": 29019, "8": 7858, "9": 28496, ":": 1804, ";": 5852, "<": 29353, "=": 25981, ">": 15660, "?": 12297, "@": 12758, "[": 15728, "\\": 1233, "]": 9741, "^": 25014, "_": 24256, "`": 4670, "a": 10474, "b": 6541, "c": 3484, "d": 87, "e": 19168, "f": 7053, "g": 27325, "h": 853, "i": 21666, "j": 22600, "k": 28918, "l": 25848, "m": 20959, "n": 4170, "o": 3352, "p": 19349, "q": 9501, "r": 1420, "s": 2566, "t": 12018, "u": 11368, "v": 5216, "w": 19249, "x": 16247, "y": 16397, "z": 2212, "{": 18347, "|": 20314, "}": 22802, "~": 10659, "\u00a1": 25388, "\u00a2": 10282, "\u00a3": 25146, "\u00a4": 13547, "\u00a5": 28737, "\u00a6": 30106, "\u00a7": 6273, "\u00a8": 19964, "\u00a9": 29640, "\u00aa": 2743, "\u00ab": 1817, "\u00ac": 13968, "\u00ae": 8131, "\u00b0": 1990, "\u00b1": 242, "\u00b2": 12244, "\u00b3": 3074, "\u00b4": 22505, "\u00b5": 2021, "\u00b6": 20209, "\u00b7": 22284, "\u00b9": 17446, "\u00ba": 20804, "\u00bb": 17842, "\u00bc": 30504, "\u00bd": 11230, "\u00be": 14125, "\u00bf": 9784, "\u00d7": 22606, "\u00df": 21224, "\u00e6": 29955, "\u00f0": 8907, "\u00f7": 15861, "\u00f8": 15497, "\u00fe": 15253, "\u0111": 24689, "\u0127": 3608, "\u0131": 28494, "\u0142": 17061, "\u014b": 8731, "\u0153": 21832, "\u0192": 18176, "\u0250": 25202, "\u0251": 25038, "\u0252": 12740, "\u0254": 28859, "\u0255": 25950, "\u0259": 15404, "\u025b": 24462, "\u0261": 28632, "\u0263": 16755, "\u0268": 17883, "\u026a": 28100, "\u026b": 20180, "\u026c": 4612, "\u026f": 3316, "\u0272": 5973, "\u0274": 3744, "\u0279": 7598, "\u027e": 8850, "\u0280": 9635, "\u0281": 26150, "\u0282": 17645, "\u0283": 26046, "\u0289": 22731, "\u028a": 20546, "\u028b": 10456, "\u028c": 11990, "\u028e": 23529, "\u0290": 6186, "\u0291": 7264, "\u0292": 7760, "\u0294": 21458, "\u02b0": 2679, "\u02b2": 29145, "\u02b3": 30102, "\u02b7": 20411, "\u02b8": 20916, "\u02bb": 3697, "\u02bc": 4495, "\u02be": 20584, "\u02bf": 20518, "\u02c8": 27316, "\u02d0": 6702, "\u02e1": 15679, "\u02e2": 2705, "\u02e3": 19540, "\u02e4": 12696, "\u03b1": 22792, "\u03b2": 25143, "\u03b3": 5884, "\u03b4": 13229, "\u03b5": 13724, "\u03b6": 15759, "\u03b7": 27112, "\u03b8": 24758, "\u03b9": 23478, "\u03ba": 23960, "\u03bb": 19927, "\u03bc": 22806, "\u03bd": 28339, "\u03be": 28512, "\u03bf": 6579, "\u03c0": 17851, "\u03c1": 14714, "\u03c2": 14564, "\u03c3": 13028, "\u03c4": 6688, "\u03c5": 17507, "\u03c6": 11541, "\u03c7": 11657, "\u03c8": 2525, "\u03c9": 25188, "\u0430": 5187, "\u0431": 1097, "\u0432": 3272, "\u0433": 1766, "\u0434": 11591, "\u0435": 11457, "\u0436": 2273, "\u0437": 15222, "\u0438": 3534, "\u043a": 9564, "\u043b": 1629, "\u043c": 8667, "\u043d": 10166, "\u043e": 15579, "\u043f": 18223, "\u0440": 14381, "\u0441": 22251, "\u0442": 4915, "\u0443": 19430, "\u0444": 6347, "\u0445": 22361, "\u0446": 20691, "\u0447": 1327, "\u0448": 12358, "\u0449": 28181, "\u044a": 21384, "\u044b": 26321, "\u044c": 18388, "\u044d": 2704, "\u044e": 4255, "\u044f": 1354, "\u0452": 21724, "\u0454": 26107, "\u0456": 2247, "\u0458": 5849, "\u0459": 1674, "\u045a": 1224, "\u045b": 15410, "\u04cf": 787, "\u0561": 6456, "\u0562": 28616, "\u0563": 27539, "\u0564": 23413, "\u0565": 19058, "\u0569": 11217, "\u056b": 11416, "\u056c": 6197, "\u056f": 23480, "\u0570": 19665, "\u0574": 28200, "\u0575": 6567, "\u0576": 19302, "\u0578": 22869, "\u057a": 28059, "\u057d": 10780, "\u057e": 15922, "\u057f": 2905, "\u0580": 20001, "\u0582": 15916, "\u0584": 23717, "\u05be": 27285, "\u05d0": 16197, "\u05d1": 8007, "\u05d2": 184, "\u05d3": 16062, "\u05d4": 20764, "\u05d5": 15852, "\u05d6": 25211, "\u05d7": 8089, "\u05d8": 29610, "\u05d9": 3509, "\u05da": 21991, "\u05db": 9378, "\u05dc": 23798, "\u05dd": 20288, "\u05de": 30353, "\u05df": 25087, "\u05e0": 4206, "\u05e1": 17770, "\u05e2": 23603, "\u05e3": 27616, "\u05e4": 16114, "\u05e5": 13880, "\u05e6": 6279, "\u05e7": 3284, "\u05e8": 3327, "\u05e9": 10489, "\u05ea": 28314, "\u060c": 12675, "\u0621": 12514, "\u0627": 8350, "\u0628": 24540, "\u0629": 3886, "\u062a": 5983, "\u062b": 29024, "\u062c": 9064, "\u062d": 13590, "\u062e": 18919, "\u062f": 3974, "\u0630": 24164, "\u0631": 5444, "\u0632": 25043, "\u0633": 20536, "\u0634": 30485, "\u0635": 15816, "\u0636": 12854, "\u0637": 22437, "\u0638": 18382, "\u0639": 22929, "\u063a": 14468, "\u0640": 28856, "\u0641": 10188, "\u0642": 3542, "\u0643": 29321, "\u0644": 3631, "\u0645": 27811, "\u0646": 16352, "\u0647": 2098, "\u0648": 26634, "\u0649": 14256, "\u064a": 21340, "\u0679": 26039, "\u067e": 20707, "\u0686": 26070, "\u06a9": 5061, "\u06af": 10814, "\u06ba": 24961, "\u06be": 7803, "\u06c1": 18835, "\u06cc": 29198, "\u06d2": 18924, "\u0905": 19286, "\u0906": 535, "\u0909": 11758, "\u090f": 9932, "\u0915": 21881, "\u0916": 2931, "\u0917": 12535, "\u091a": 23800, "\u091c": 13586, "\u091f": 18432, "\u0921": 23497, "\u0923": 3673, "\u0924": 10086, "\u0925": 13199, "\u0926": 27426, "\u0927": 25852, "\u0928": 19846, "\u092a": 6247, "\u092c": 9900, "\u092d": 28063, "\u092e": 27792, "\u092f": 3650, "\u0930": 16382, "\u0932": 587, "\u0935": 9544, "\u0936": 14044, "\u0937": 19325, "\u0938": 13060, "\u0939": 15952, "\u093e": 4769, "\u093f": 20390, "\u0940": 949, "\u094b": 10083, "\u0964": 28691, "\u0965": 9566, "\u0982": 16999, "\u0985": 14764, "\u0986": 9106, "\u0987": 4318, "\u0989": 26858, "\u098f": 3900, "\u0993": 17070, "\u0995": 14362, "\u0996": 11771, "\u0997": 21053, "\u099a": 4734, "\u099b": 8356, "\u099c": 13034, "\u099f": 76, "\u09a1": 18271, "\u09a3": 18858, "\u09a4": 14577, "\u09a5": 10418, "\u09a6": 29887, "\u09a7": 4114, "\u09a8": 14550, "\u09aa": 1322, "\u09ac": 29099, "\u09ad": 14634, "\u09ae": 9736, "\u09af": 26580, "\u09b0": 12682, "\u09b2": 1308, "\u09b6": 26732, "\u09b7": 16609, "\u09b8": 24676, "\u09b9": 3883, "\u09be": 12007, "\u09bf": 22070, "\u09c0": 12856, "\u09c7": 23881, "\u0b95": 17576, "\u0b9a": 4752, "\u0b9f": 18579, "\u0ba4": 8598, "\u0ba8": 14018, "\u0ba9": 15209, "\u0baa": 17879, "\u0bae": 7127, "\u0baf": 6092, "\u0bb0": 2952, "\u0bb2": 25373, "\u0bb3": 5741, "\u0bb5": 20532, "\u0bbe": 24579, "\u0bbf": 25221, "\u0bc1": 25902, "\u0bc7": 24031, "\u0bc8": 23482, "\u0ca8": 27167, "\u0cb0": 27536, "\u0cbe": 13351, "\u0d9a": 2207, "\u0dba": 13527, "\u0dbb": 22581, "\u0dbd": 8012, "\u0dc0": 26035, "\u0dcf": 16525, "\u0e01": 14336, "\u0e07": 9886, "\u0e15": 2388, "\u0e17": 27728, "\u0e19": 1977, "\u0e1e": 23083, "\u0e21": 20233, "\u0e22": 12420, "\u0e23": 23508, "\u0e25": 19786, "\u0e27": 28007, "\u0e2a": 6931, "\u0e2d": 24964, "\u0e32": 26716, "\u0e40": 1016, "\u0f0b": 17844, "\u0f0d": 7154, "\u0f42": 21436, "\u0f44": 22172, "\u0f51": 12338, "\u0f53": 2099, "\u0f54": 26816, "\u0f56": 9896, "\u0f58": 5189, "\u0f60": 16956, "\u0f62": 3880, "\u0f63": 16757, "\u0f66": 14326, "\u1019": 445, "\u10d0": 28437, "\u10d1": 9120, "\u10d2": 9154, "\u10d3": 21854, "\u10d4": 23840, "\u10d5": 23665, "\u10d7": 26838, "\u10d8": 3565, "\u10d9": 311, "\u10da": 3194, "\u10db": 4187, "\u10dc": 30318, "\u10dd": 23689, "\u10e0": 16822, "\u10e1": 6412, "\u10e2": 17439, "\u10e3": 9715, "\u1100": 8563, "\u1102": 15346, "\u1103": 23617, "\u1105": 24419, "\u1106": 3613, "\u1107": 29446, "\u1109": 6845, "\u110a": 6671, "\u110b": 9291, "\u110c": 21827, "\u110e": 1379, "\u110f": 17136, "\u1110": 7631, "\u1111": 28035, "\u1112": 13840, "\u1161": 13193, "\u1162": 25463, "\u1165": 17349, "\u1166": 1243, "\u1167": 20796, "\u1169": 2574, "\u116a": 2378, "\u116d": 14478, "\u116e": 9789, "\u116f": 3130, "\u1172": 1450, "\u1173": 29460, "\u1174": 16603, "\u1175": 11922, "\u11a8": 8388, "\u11ab": 7939, "\u11af": 26084, "\u11b7": 152, "\u11b8": 1427, "\u11bc": 1396, "\u1d2c": 27208, "\u1d2e": 18849, "\u1d30": 19906, "\u1d35": 28125, "\u1d3a": 11896, "\u1d40": 20374, "\u1d43": 2590, "\u1d47": 25404, "\u1d48": 1383, "\u1d49": 12970, "\u1d4d": 10141, "\u1d4f": 13132, "\u1d50": 18444, "\u1d52": 25945, "\u1d56": 9206, "\u1d57": 7187, "\u1d58": 16947, "\u1d62": 29833, "\u1d63": 5114, "\u1d64": 8656, "\u1d65": 26098, "\u1d9c": 23484, "\u1da0": 565, "\u2010": 14596, "\u2011": 20088, "\u2012": 21525, "\u2013": 21351, "\u2014": 22597, "\u2015": 29639, "\u2016": 3671, "\u2018": 27884, "\u2019": 6198, "\u201a": 12479, "\u201c": 25267, "\u201d": 19209, "\u201e": 15784, "\u2020": 19174, "\u2021": 26894, "\u2022": 29251, "\u2026": 1493, "\u2030": 10284, "\u2032": 23567, "\u2033": 267, "\u203a": 3658, "\u203f": 29278, "\u2044": 6730, "\u2070": 9698, "\u2071": 27932, "\u2074": 26727, "\u2075": 5220, "\u2076": 8330, "\u2077": 21410, "\u2078": 5336, "\u2079": 19946, "\u207a": 15610, "\u207b": 9127, "\u207f": 11046, "\u2080": 26944, "\u2081": 2033, "\u2082": 19899, "\u2083": 24121, "\u2084": 20590, "\u2085": 29109, "\u2086": 2081, "\u2087": 53, "\u2088": 23412, "\u2089": 470, "\u208a": 14429, "\u208d": 20333, "\u208e": 19279, "\u2090": 29189, "\u2091": 11142, "\u2092": 19503, "\u2093": 112, "\u2095": 28970, "\u2096": 29794, "\u2097": 15936, "\u2098": 14340, "\u2099": 11447, "\u209a": 28980, "\u209b": 22120, "\u209c": 20898, "\u20a4": 2828, "\u20a9": 22309, "\u20ac": 832, "\u20b1": 14124, "\u20b9": 6266, "\u2113": 15834, "\u2116": 13349, "\u211d": 8015, "\u2122": 2710, "\u2153": 18937, "\u2154": 21563, "\u2190": 5897, "\u2191": 25213, "\u2192": 9885, "\u2193": 12257, "\u2194": 1648, "\u21a6": 29985, "\u21c4": 9315, "\u21cc": 19826, "\u21d2": 25759, "\u2202": 22460, "\u2205": 8949, "\u2206": 29982, "\u2207": 4556, "\u2208": 6088, "\u2212": 18402, "\u2217": 28330, "\u2218": 4132, "\u221a": 11917, "\u221e": 1542, "\u2227": 15901, "\u2228": 11629, "\u2229": 1544, "\u222a": 13162, "\u2248": 22531, "\u2261": 11477, "\u2264": 26506, "\u2265": 8584, "\u2282": 7249, "\u2286": 8504, "\u2295": 18517, "\u2297": 7094, "\u22c5": 25598, "\u2500": 17063, "\u2502": 5510, "\u25a0": 7691, "\u25aa": 29518, "\u25cf": 7146, "\u2605": 15198, "\u2606": 698, "\u2609": 23891, "\u2660": 4498, "\u2663": 3605, "\u2665": 4449, "\u2666": 7482, "\u266d": 24792, "\u266f": 29014, "\u27e8": 215, "\u27e9": 5468, "\u2c7c": 28741, "\u2ea9": 12397, "\u2ebc": 21470, "\u2f65": 12887, "\u3001": 9279, "\u3002": 19277, "\u3008": 13801, "\u3009": 29408, "\u300a": 20089, "\u300b": 18236, "\u300c": 19523, "\u300d": 24814, "\u300e": 18182, "\u300f": 20415, "\u301c": 23519, "\u3042": 20978, "\u3044": 482, "\u3046": 17549, "\u3048": 805, "\u304a": 11717, "\u304b": 21242, "\u304d": 6927, "\u304f": 24145, "\u3051": 21943, "\u3053": 28609, "\u3055": 25410, "\u3057": 4100, "\u3059": 3231, "\u305b": 13501, "\u305d": 2774, "\u305f": 12036, "\u3061": 22388, "\u3063": 20744, "\u3064": 5675, "\u3066": 10038, "\u3068": 10504, "\u306a": 16560, "\u306b": 26874, "\u306c": 21163, "\u306d": 25298, "\u306e": 3087, "\u306f": 16882, "\u3072": 20231, "\u3075": 10411, "\u3078": 9020, "\u307b": 18867, "\u307e": 6673, "\u307f": 2088, "\u3080": 4266, "\u3081": 8211, "\u3082": 10042, "\u3084": 8671, "\u3086": 8205, "\u3088": 29968, "\u3089": 27641, "\u308a": 4678, "\u308b": 17487, "\u308c": 23848, "\u308d": 18433, "\u3092": 2335, "\u3093": 16655, "\u30a1": 17614, "\u30a2": 17815, "\u30a3": 11072, "\u30a4": 25599, "\u30a6": 12509, "\u30a7": 10803, "\u30a8": 30199, "\u30aa": 24259, "\u30ab": 29138, "\u30ad": 17100, "\u30af": 9627, "\u30b1": 16512, "\u30b3": 24830, "\u30b5": 4794, "\u30b7": 16759, "\u30b9": 25411, "\u30bb": 4778, "\u30bf": 2238, "\u30c1": 19374, "\u30c3": 14258, "\u30c4": 28108, "\u30c6": 19939, "\u30c8": 15748, "\u30ca": 9822, "\u30cb": 30089, "\u30ce": 8395, "\u30cf": 11633, "\u30d2": 22566, "\u30d5": 26038, "\u30d8": 30216, "\u30db": 24615, "\u30de": 17336, "\u30df": 26774, "\u30e0": 13248, "\u30e1": 17683, "\u30e2": 12793, "\u30e3": 500, "\u30e5": 15192, "\u30e7": 9210, "\u30e9": 17654, "\u30ea": 29915, "\u30eb": 4277, "\u30ec": 4413, "\u30ed": 12894, "\u30ef": 26170, "\u30f3": 8560, "\u30fb": 20775, "\u30fc": 21539, "\u4e00": 1382, "\u4e09": 21486, "\u4e0a": 18391, "\u4e0b": 18041, "\u4e0d": 14578, "\u4e16": 17531, "\u4e2d": 27530, "\u4e3b": 19364, "\u4e45": 1961, "\u4e4b": 26640, "\u4e5f": 12080, "\u4e8b": 6176, "\u4e8c": 14072, "\u4e94": 17612, "\u4e95": 22348, "\u4eac": 3411, "\u4eba": 24022, "\u4ebb": 8026, "\u4ec1": 11415, "\u4ecb": 12129, "\u4ee3": 4075, "\u4eee": 4355, "\u4f0a": 3420, "\u4f1a": 29684, "\u4f50": 25240, "\u4f8d": 8059, "\u4fdd": 23402, "\u4fe1": 11165, "\u5065": 20969, "\u5143": 8812, "\u5149": 16779, "\u516b": 13198, "\u516c": 8822, "\u5185": 10916, "\u51fa": 13212, "\u5206": 20195, "\u524d": 3264, "\u5289": 23640, "\u529b": 10208, "\u52a0": 23318, "\u52dd": 9874, "\u5317": 21319, "\u533a": 28306, "\u5341": 17724, "\u5343": 2318, "\u5357": 10520, "\u535a": 17416, "\u539f": 12246, "\u53e3": 25926, "\u53e4": 23553, "\u53f2": 24885, "\u53f8": 10114, "\u5408": 5217, "\u5409": 14838, "\u540c": 4552, "\u540d": 20531, "\u548c": 334, "\u56d7": 22819, "\u56db": 29728, "\u56fd": 5836, "\u570b": 1137, "\u571f": 12542, "\u5730": 13454, "\u5742": 13041, "\u57ce": 40, "\u5802": 21423, "\u5834": 15938, "\u58eb": 3433, "\u590f": 806, "\u5916": 28006, "\u5927": 23127, "\u5929": 24695, "\u592a": 27209, "\u592b": 16418, "\u5948": 514, "\u5973": 11387, "\u5b50": 829, "\u5b66": 27575, "\u5b80": 642, "\u5b87": 23543, "\u5b89": 14985, "\u5b97": 23348, "\u5b9a": 17326, "\u5ba3": 17244, "\u5bae": 16164, "\u5bb6": 12417, "\u5bbf": 6349, "\u5bfa": 22487, "\u5c07": 6232, "\u5c0f": 4258, "\u5c1a": 25903, "\u5c71": 2419, "\u5ca1": 3254, "\u5cf6": 23411, "\u5d0e": 23287, "\u5ddd": 18780, "\u5dde": 25522, "\u5dff": 27469, "\u5e1d": 29810, "\u5e73": 4360, "\u5e74": 1355, "\u5e78": 10139, "\u5e7f": 13641, "\u5f18": 28622, "\u5f35": 9211, "\u5f73": 18135, "\u5f8c": 24408, "\u5fa1": 20520, "\u5fb7": 11965, "\u5fc3": 24406, "\u5fc4": 10179, "\u5fd7": 9930, "\u5fe0": 6153, "\u611b": 10470, "\u6210": 14495, "\u6211": 18571, "\u6226": 11395, "\u6238": 24593, "\u624b": 22941, "\u624c": 6823, "\u653f": 17206, "\u6587": 3432, "\u65b0": 18266, "\u65b9": 28738, "\u65e5": 10968, "\u660e": 8225, "\u661f": 25325, "\u6625": 9398, "\u662d": 7674, "\u667a": 7283, "\u66f2": 9274, "\u66f8": 11319, "\u6708": 5475, "\u6709": 24618, "\u671d": 8427, "\u6728": 10975, "\u672c": 7659, "\u674e": 11776, "\u6751": 19167, "\u6771": 13218, "\u677e": 17302, "\u6797": 11041, "\u68ee": 16412, "\u694a": 29064, "\u6a39": 731, "\u6a4b": 9505, "\u6b4c": 22181, "\u6b62": 17673, "\u6b63": 12220, "\u6b66": 21742, "\u6bd4": 23988, "\u6c0f": 5859, "\u6c11": 12468, "\u6c34": 28615, "\u6c35": 26775, "\u6c37": 9924, "\u6c38": 10675, "\u6c5f": 12807, "\u6ca2": 21826, "\u6cb3": 19606, "\u6cbb": 16195, "\u6cd5": 26683, "\u6d77": 20913, "\u6e05": 28853, "\u6f22": 11874, "\u702c": 17186, "\u706b": 12748, "\u7248": 16140, "\u72ac": 12114, "\u738b": 17457, "\u751f": 21234, "\u7530": 29945, "\u7537": 29620, "\u7592": 13639, "\u767a": 22270, "\u767d": 26520, "\u7684": 2783, "\u7687": 14028, "\u76ee": 28552, "\u76f8": 21108, "\u7701": 5919, "\u771f": 5974, "\u77f3": 4885, "\u793a": 17295, "\u793e": 28271, "\u795e": 27265, "\u798f": 17821, "\u79be": 17123, "\u79c0": 8032, "\u79cb": 7294, "\u7a7a": 16902, "\u7acb": 30456, "\u7ae0": 3836, "\u7af9": 4434, "\u7cf9": 17913, "\u7f8e": 10029, "\u7fa9": 9236, "\u8033": 22771, "\u826f": 6413, "\u8279": 4414, "\u82b1": 9153, "\u82f1": 18627, "\u83ef": 3214, "\u8449": 20892, "\u85e4": 15902, "\u884c": 23611, "\u8857": 16217, "\u897f": 10385, "\u898b": 23410, "\u8a01": 3041, "\u8a9e": 6852, "\u8c37": 9252, "\u8c9d": 17483, "\u8cb4": 2682, "\u8eca": 29308, "\u8ecd": 27191, "\u8fb6": 9376, "\u9053": 1007, "\u90ce": 578, "\u90e1": 4820, "\u90e8": 16872, "\u90fd": 20438, "\u91cc": 29042, "\u91ce": 24850, "\u91d1": 28309, "\u9234": 23320, "\u9547": 3044, "\u9577": 15584, "\u9580": 4372, "\u9593": 24508, "\u961d": 13695, "\u963f": 16830, "\u9673": 23906, "\u967d": 8244, "\u96c4": 11737, "\u9752": 10498, "\u9762": 23870, "\u98a8": 24713, "\u98df": 26210, "\u9999": 4725, "\u99ac": 19109, "\u9ad8": 27697, "\u9f8d": 713, "\u9fb8": 9493, "\ufb01": 30284, "\ufb02": 17980, "\uff01": 27943, "\uff08": 12, "\uff09": 28579, "\uff0c": 21479, "\uff0d": 28112, "\uff0e": 22196, "\uff0f": 9436, "\uff1a": 30293, "\uff1f": 966, "\uff5e": 21278, "the": 1482, "of": 9415, "and": 135, "in": 20830, "to": 28754, "was": 7591, "he": 29301, "is": 12616, "as": 30450, "for": 29508, "on": 10054, "with": 18294, "that": 18575, "it": 19898, "his": 23148, "by": 3108, "at": 29248, "from": 6539, "her": 12654, "##s": 29173, "she": 25174, "you": 18826, "had": 26183, "an": 28289, "were": 5651, "but": 24572, "be": 20689, "this": 10315, "are": 27899, "not": 5552, "my": 27588, "they": 28303, "one": 20358, "which": 831, "or": 781, "have": 28429, "him": 23654, "me": 2632, "first": 14471, "all": 259, "also": 3760, "their": 5103, "has": 709, "up": 29385, "who": 14656, "out": 46, "been": 10564, "when": 15636, "after": 29913, "there": 27288, "into": 23496, "new": 30365, "two": 19416, "its": 24449, "##a": 8926, "time": 7942, "would": 11932, "no": 9267, "what": 1183, "about": 27056, "said": 27732, "we": 17407, "over": 6380, "then": 15765, "other": 29034, "so": 19715, "more": 2907, "##e": 11223, "can": 1466, "if": 21669, "like": 5925, "back": 13696, "them": 28862, "only": 7821, "some": 825, "could": 12176, "##i": 13442, "where": 26877, "just": 4212, "##ing": 1702, "during": 20968, "before": 5289, "##n": 13394, "do": 842, "##o": 1917, "made": 28803, "school": 725, "through": 22263, "than": 5954, "now": 18129, "years": 7936, "most": 20274, "world": 5426, "may": 22533, "between": 27533, "down": 28810, "well": 6500, "three": 22526, "##d": 10935, "year": 18257, "while": 3991, "will": 21831, "##ed": 27253, "##r": 7476, "##y": 30378, "later": 9219, "##t": 14594, "city": 8957, "under": 20375, "around": 18237, "did": 22417, "such": 25396, "being": 26528, "used": 26758, "state": 13678, "people": 29031, "part": 13825, "know": 26997, "against": 11234, "your": 6595, "many": 8890, "second": 9646, "university": 1032, "both": 13226, "national": 2816, "##er": 463, "these": 22978, "don": 19038, "known": 14710, "off": 27292, "way": 2843, "until": 20326, "re": 727, "how": 27200, "even": 28871, "get": 8122, "head": 14913, "...": 29273, "didn": 25181, "##ly": 5965, "team": 2889, "american": 1055, "because": 26437, "de": 9006, "##l": 24889, "born": 18620, "united": 3431, "film": 935, "since": 25577, "still": 18150, "long": 344, "work": 2361, "south": 15930, "us": 16008, "became": 13545, "any": 3414, "high": 5328, "again": 3717, "day": 28064, "family": 25343, "see": 9612, "right": 29191, "man": 672, "eyes": 22955, "house": 25703, "season": 14817, "war": 1179, "states": 22691, "including": 3736, "took": 11952, "life": 5613, "north": 826, "same": 16876, "each": 6470, "called": 6701, "name": 12450, "much": 27061, "place": 25830, "however": 2289, "go": 4294, "four": 4139, "group": 6471, "another": 29225, "found": 27819, "won": 12492, "area": 29708, "here": 27007, "going": 29228, "10": 6640, "away": 7144, "series": 18172, "left": 6895, "home": 25369, "music": 21613, "best": 28913, "make": 20822, "hand": 1372, "number": 1424, "company": 28241, "several": 9122, "never": 26729, "last": 24562, "john": 6172, "000": 27297, "very": 19378, "album": 15641, "take": 25001, "end": 2029, "good": 7976, "too": 3, "following": 18806, "released": 10434, "game": 13136, "played": 27145, "little": 28166, "began": 16597, "district": 12151, "##m": 29549, "old": 5183, "want": 9201, "those": 21875, "side": 10473, "held": 20867, "own": 23098, "early": 10438, "county": 25764, "ll": 28873, "league": 19987, "use": 23342, "west": 25544, "##u": 25785, "face": 24523, "think": 27923, "##es": 14441, "2010": 1701, "government": 4842, "##h": 28032, "march": 17158, "came": 15684, "small": 11587, "general": 28102, "town": 25081, "june": 19556, "##on": 1728, "line": 19563, "based": 20563, "something": 25091, "##k": 6011, "september": 4582, "thought": 17805, "looked": 29205, "along": 6368, "international": 1362, "2011": 13174, "air": 25805, "july": 15288, "club": 408, "went": 12911, "january": 15898, "october": 26783, "our": 9367, "august": 13508, "april": 12263, "york": 3604, "12": 24068, "few": 17907, "2012": 14304, "2008": 120, "east": 7765, "show": 3913, "member": 28078, "college": 21659, "2009": 26984, "father": 4157, "public": 14936, "##us": 8550, "come": 7101, "men": 11988, "five": 6489, "set": 8290, "station": 4887, "church": 24064, "##c": 994, "next": 20725, "former": 13143, "november": 12802, "room": 9951, "party": 8426, "located": 12652, "december": 29467, "2013": 9096, "age": 11242, "got": 11507, "2007": 10628, "##g": 28910, "system": 6933, "let": 15478, "love": 12759, "2006": 25496, "though": 9179, "every": 19575, "2014": 23954, "look": 1981, "song": 12329, "water": 20249, "century": 28119, "without": 9832, "body": 24450, "black": 4860, "night": 14289, "within": 6482, "great": 980, "women": 19879, "single": 10744, "ve": 24309, "building": 1231, "large": 22710, "population": 20021, "river": 28900, "named": 923, "band": 25045, "white": 4393, "started": 9121, "##an": 27860, "once": 2924, "15": 6533, "20": 28728, "should": 10740, "18": 17002, "2015": 23782, "service": 28968, "top": 3970, "built": 14077, "british": 7704, "open": 17847, "death": 19014, "king": 18164, "moved": 27017, "local": 25253, "times": 6133, "children": 23539, "february": 14760, "book": 1733, "why": 2714, "11": 7569, "door": 30244, "need": 26532, "president": 21962, "order": 21705, "final": 14513, "road": 11290, "wasn": 5460, "although": 14541, "due": 12354, "major": 4631, "died": 13338, "village": 14106, "third": 28932, "knew": 13552, "2016": 5241, "asked": 8409, "turned": 12150, "st": 23922, "wanted": 6106, "say": 22, "##p": 12327, "together": 19190, "received": 969, "main": 8637, "son": 23901, "served": 24174, "different": 10151, "##en": 18917, "behind": 26600, "himself": 15609, "felt": 2988, "members": 9275, "power": 29595, "football": 4188, "law": 14709, "voice": 7332, "play": 18521, "##in": 14841, "near": 21355, "park": 14271, "history": 23124, "30": 14488, "having": 22632, "2005": 19456, "16": 14679, "##man": 4433, "saw": 3648, "mother": 24190, "##al": 17005, "army": 28566, "point": 10081, "front": 29095, "help": 23725, "english": 8913, "street": 12746, "art": 22116, "late": 22522, "hands": 3574, "games": 26855, "award": 13944, "##ia": 1652, "young": 15940, "14": 10685, "put": 9959, "published": 11553, "country": 12038, "division": 21327, "across": 17906, "told": 1675, "13": 5101, "often": 29936, "ever": 7764, "french": 5310, "london": 24690, "center": 20167, "six": 723, "red": 2135, "2017": 8506, "led": 23694, "days": 10354, "include": 5214, "light": 9582, "25": 26246, "find": 19159, "tell": 27883, "among": 4932, "species": 18368, "really": 28171, "according": 18480, "central": 7944, "half": 21461, "2004": 28561, "form": 20848, "original": 9409, "gave": 2303, "office": 16029, "making": 21693, "enough": 30465, "lost": 2035, "full": 1338, "opened": 21554, "must": 12346, "included": 27564, "live": 17307, "given": 17904, "german": 9538, "player": 19982, "run": 1164, "business": 27095, "woman": 13837, "community": 10274, "cup": 2950, "might": 29209, "million": 24529, "land": 23515, "2000": 24216, "court": 25932, "development": 19340, "17": 21839, "short": 7726, "round": 6123, "ii": 18216, "km": 18513, "seen": 4817, "class": 30158, "story": 25135, "always": 16261, "become": 11639, "sure": 5959, "research": 19833, "almost": 10462, "director": 26399, "council": 5500, "la": 12973, "##2": 11381, "career": 19533, "things": 30433, "using": 22734, "island": 10948, "##z": 5404, "couldn": 4825, "car": 6547, "##is": 2657, "24": 23696, "close": 29124, "force": 4087, "##1": 16992, "better": 137, "free": 12467, "support": 189, "control": 22043, "field": 27337, "students": 24991, "2003": 6292, "education": 14196, "married": 9890, "##b": 1931, "nothing": 10371, "worked": 260, "others": 17420, "record": 6315, "big": 13230, "inside": 10276, "level": 25444, "anything": 11085, "continued": 15915, "give": 16531, "james": 7199, "##3": 20153, "military": 7647, "established": 8773, "non": 22297, "returned": 13570, "feel": 7721, "does": 24453, "title": 15538, "written": 22969, "thing": 18360, "feet": 3857, "william": 25518, "far": 15482, "co": 20490, "association": 22068, "hard": 23424, "already": 12818, "2002": 26755, "##ra": 21365, "championship": 22692, "human": 12345, "western": 3092, "100": 23438, "##na": 17327, "department": 22380, "hall": 17932, "role": 15924, "various": 12002, "production": 1951, "21": 10646, "19": 23547, "heart": 28179, "2001": 22834, "living": 15554, "fire": 745, "version": 8499, "##ers": 4954, "##f": 23741, "television": 13851, "royal": 28884, "##4": 26282, "produced": 14743, "working": 20696, "act": 13096, "case": 14527, "society": 17664, "region": 9027, "present": 29908, "radio": 9976, "period": 1090, "looking": 27436, "least": 12528, "total": 5145, "keep": 13159, "england": 6840, "wife": 11036, "program": 16825, "per": 29910, "brother": 2384, "mind": 21545, "special": 8344, "22": 23897, "##le": 29445, "am": 9327, "works": 4557, "soon": 29413, "##6": 12895, "political": 13458, "george": 3899, "services": 11306, "taken": 25191, "created": 13342, "##7": 9984, "further": 20032, "able": 305, "reached": 23115, "david": 12269, "union": 7414, "joined": 19212, "upon": 16894, "done": 18438, "important": 20983, "social": 25545, "information": 274, "either": 1582, "##ic": 20401, "##x": 597, "appeared": 10430, "position": 23505, "ground": 12903, "lead": 23672, "rock": 9849, "dark": 18857, "election": 1144, "23": 19132, "board": 29318, "france": 11249, "hair": 9813, "course": 15056, "arms": 12422, "site": 2436, "police": 30286, "girl": 1104, "instead": 27924, "real": 10611, "sound": 2515, "##v": 9639, "words": 17219, "moment": 18434, "##te": 11583, "someone": 17882, "##8": 17032, "summer": 15400, "project": 17470, "announced": 14941, "san": 17714, "less": 21233, "wrote": 2205, "past": 17661, "followed": 6957, "##5": 10613, "blue": 23029, "founded": 24269, "al": 13587, "finally": 7286, "india": 7641, "taking": 10521, "records": 26036, "america": 8754, "##ne": 12116, "1999": 22524, "design": 1490, "considered": 4089, "northern": 2382, "god": 6428, "stop": 29020, "battle": 8415, "toward": 21314, "european": 3048, "outside": 20007, "described": 10652, "track": 24654, "today": 36, "playing": 16067, "language": 2343, "28": 27849, "call": 24627, "26": 28010, "heard": 26317, "professional": 23067, "low": 15937, "australia": 6241, "miles": 4758, "california": 17034, "win": 28586, "yet": 7841, "green": 5010, "##ie": 4883, "trying": 11016, "blood": 21069, "##ton": 12983, "southern": 16266, "science": 20673, "maybe": 27658, "everything": 789, "match": 15287, "square": 5393, "27": 28286, "mouth": 23589, "video": 22335, "race": 2326, "recorded": 209, "leave": 5574, "above": 16083, "##9": 28553, "daughter": 29709, "points": 4698, "space": 457, "1998": 16356, "museum": 9625, "change": 25344, "middle": 20126, "common": 16583, "##0": 20943, "move": 26715, "tv": 12520, "post": 16123, "##ta": 9514, "lake": 9901, "seven": 18420, "tried": 10585, "elected": 17748, "closed": 16404, "ten": 21779, "paul": 7077, "minister": 17503, "##th": 447, "months": 21830, "start": 572, "chief": 27329, "return": 2773, "canada": 5999, "person": 27891, "sea": 27409, "release": 5194, "similar": 12375, "modern": 11121, "brought": 28285, "rest": 15953, "hit": 17836, "formed": 2440, "mr": 30500, "##la": 4542, "1997": 14122, "floor": 23483, "event": 14186, "doing": 21273, "thomas": 650, "1996": 17799, "robert": 12820, "care": 20122, "killed": 24316, "training": 27320, "star": 10616, "week": 26105, "needed": 106, "turn": 5605, "finished": 2995, "railway": 12934, "rather": 17591, "news": 6419, "health": 19876, "sent": 16012, "example": 17269, "ran": 10329, "term": 6552, "michael": 29502, "coming": 240, "currently": 2307, "yes": 23003, "forces": 28601, "despite": 25106, "gold": 4795, "areas": 12847, "50": 503, "stage": 10467, "fact": 30005, "29": 23664, "dead": 5673, "says": 8990, "popular": 24172, "2018": 21493, "originally": 4917, "germany": 20286, "probably": 27798, "developed": 26279, "result": 6211, "pulled": 18580, "friend": 11411, "stood": 16039, "money": 6964, "running": 29199, "mi": 6599, "signed": 20334, "word": 20877, "songs": 4391, "child": 14104, "eventually": 3157, "met": 23548, "tour": 481, "average": 6293, "teams": 5800, "minutes": 28619, "festival": 25403, "current": 26742, "deep": 15486, "kind": 8045, "1995": 24105, "decided": 12438, "usually": 22483, "eastern": 30204, "seemed": 14197, "##ness": 2651, "episode": 26899, "bed": 5478, "added": 6508, "table": 23231, "indian": 5265, "private": 3805, "charles": 12692, "route": 10752, "available": 4166, "idea": 5159, "throughout": 20656, "centre": 26247, "addition": 107, "appointed": 24513, "style": 999, "1994": 4705, "books": 8160, "eight": 18994, "construction": 7407, "press": 29870, "mean": 22539, "wall": 10608, "friends": 29770, "remained": 22582, "schools": 11453, "study": 7968, "##ch": 10654, "##um": 27864, "institute": 16431, "oh": 13810, "chinese": 5224, "sometimes": 12094, "events": 27384, "possible": 11093, "1992": 2115, "australian": 27425, "type": 26376, "brown": 5107, "forward": 15268, "talk": 9029, "process": 28380, "food": 13708, "debut": 15134, "seat": 26938, "performance": 15980, "committee": 26766, "features": 4987, "character": 10690, "arts": 7652, "herself": 10433, "else": 1429, "lot": 18684, "strong": 23677, "russian": 10518, "range": 16654, "hours": 22817, "peter": 21403, "arm": 3406, "##da": 2096, "morning": 11000, "dr": 16271, "sold": 29235, "##ry": 6574, "quickly": 28824, "directed": 22780, "1993": 3388, "guitar": 30321, "china": 7596, "##w": 22088, "31": 27910, "list": 20076, "##ma": 25243, "performed": 23990, "media": 29927, "uk": 27216, "players": 3341, "smile": 17816, "##rs": 4494, "myself": 12575, "40": 12290, "placed": 7883, "coach": 26939, "province": 15800, "towards": 24117, "wouldn": 20224, "leading": 11711, "whole": 10979, "boy": 1918, "official": 22650, "designed": 14500, "grand": 26870, "census": 7429, "##el": 13448, "europe": 21082, "attack": 25514, "japanese": 13660, "henry": 15592, "1991": 8226, "##re": 21044, "##os": 7135, "cross": 5236, "getting": 23826, "alone": 26124, "action": 11109, "lower": 7415, "network": 27024, "wide": 5921, "washington": 16751, "japan": 29878, "1990": 28447, "hospital": 27411, "believe": 7255, "changed": 13555, "sister": 24429, "##ar": 1106, "hold": 5442, "gone": 5248, "sir": 5713, "hadn": 12160, "ship": 17623, "##ka": 26960, "studies": 11310, "academy": 3539, "shot": 18587, "rights": 29777, "below": 27258, "base": 15233, "bad": 18888, "involved": 28802, "kept": 2126, "largest": 9598, "##ist": 14781, "bank": 28659, "future": 30060, "especially": 29, "beginning": 20328, "mark": 19544, "movement": 30473, "section": 10760, "female": 14274, "magazine": 2609, "plan": 11450, "professor": 21025, "lord": 2833, "longer": 3773, "##ian": 13579, "sat": 5591, "walked": 23454, "hill": 24592, "actually": 14681, "civil": 296, "energy": 13964, "model": 8919, "families": 13043, "size": 26492, "thus": 7773, "aircraft": 22359, "completed": 12821, "includes": 2576, "data": 25055, "captain": 24414, "##or": 397, "fight": 28973, "vocals": 18861, "featured": 14065, "richard": 27776, "bridge": 26757, "fourth": 28471, "1989": 7679, "officer": 28875, "stone": 29397, "hear": 3882, "##ism": 28524, "means": 14016, "medical": 5866, "groups": 12912, "management": 29414, "self": 10344, "lips": 18702, "competition": 25032, "entire": 14703, "lived": 14361, "technology": 12142, "leaving": 14417, "federal": 21477, "tournament": 15713, "bit": 8843, "passed": 5054, "hot": 17563, "independent": 8231, "awards": 16367, "kingdom": 6046, "mary": 10795, "spent": 13336, "fine": 380, "doesn": 26404, "reported": 20449, "##ling": 24859, "jack": 9776, "fall": 5418, "raised": 1376, "itself": 1927, "stay": 13763, "true": 28971, "studio": 9559, "1988": 6326, "sports": 22101, "replaced": 3663, "paris": 24334, "systems": 17839, "saint": 24642, "leader": 10442, "theatre": 12313, "whose": 11621, "market": 25776, "capital": 13427, "parents": 14754, "spanish": 2579, "canadian": 28891, "earth": 15707, "##ity": 13044, "cut": 28126, "degree": 29041, "writing": 4289, "bay": 7715, "christian": 19382, "awarded": 8371, "natural": 16694, "higher": 15979, "bill": 4586, "##as": 4450, "coast": 12134, "provided": 18856, "previous": 11057, "senior": 3452, "ft": 2701, "valley": 10413, "organization": 3263, "stopped": 1656, "onto": 25697, "countries": 7300, "parts": 8503, "conference": 30144, "queen": 8370, "security": 2233, "interest": 7253, "saying": 21856, "allowed": 11524, "master": 16306, "earlier": 3149, "phone": 28323, "matter": 29392, "smith": 2780, "winning": 24657, "try": 7079, "happened": 5962, "moving": 20561, "campaign": 15854, "los": 5606, "##ley": 25586, "breath": 21727, "nearly": 24184, "mid": 29086, "1987": 17545, "certain": 8674, "girls": 14787, "date": 9379, "italian": 3046, "african": 25569, "standing": 12487, "fell": 6102, "artist": 24456, "##ted": 27599, "shows": 29448, "deal": 8273, "mine": 7413, "industry": 2295, "1986": 18540, "##ng": 13910, "everyone": 19477, "republic": 24077, "provide": 16774, "collection": 20257, "library": 12424, "student": 20813, "##ville": 11018, "primary": 26031, "owned": 10711, "older": 9692, "via": 9009, "heavy": 19970, "1st": 7787, "makes": 24294, "##able": 25813, "attention": 23013, "anyone": 14979, "africa": 21010, "##ri": 17889, "stated": 28798, "length": 5772, "ended": 24715, "fingers": 9696, "command": 21930, "staff": 21708, "skin": 13541, "foreign": 17867, "opening": 26878, "governor": 4999, "okay": 17972, "medal": 837, "kill": 21945, "sun": 15642, "cover": 29284, "job": 20264, "1985": 15622, "introduced": 24433, "chest": 18286, "hell": 13395, "feeling": 17875, "##ies": 21748, "success": 13360, "meet": 11155, "reason": 9401, "standard": 3871, "meeting": 17686, "novel": 23352, "1984": 22397, "trade": 21152, "source": 1063, "buildings": 7109, "##land": 2795, "rose": 25568, "guy": 1877, "goal": 15398, "##ur": 2509, "chapter": 19, "native": 7931, "husband": 7093, "previously": 30004, "unit": 24032, "limited": 1173, "entered": 4152, "weeks": 10962, "producer": 16237, "operations": 20711, "mountain": 3643, "takes": 27421, "covered": 9303, "forced": 18028, "related": 1130, "roman": 19685, "complete": 11755, "successful": 21503, "key": 12918, "texas": 17399, "cold": 14064, "##ya": 10705, "channel": 19751, "1980": 18903, "traditional": 12477, "films": 16300, "dance": 6635, "clear": 18810, "approximately": 20234, "500": 25642, "nine": 17635, "van": 24927, "prince": 14919, "question": 10004, "active": 26516, "tracks": 15785, "ireland": 16147, "regional": 7447, "silver": 22171, "author": 24870, "personal": 11248, "sense": 5882, "operation": 12936, "##ine": 5249, "economic": 1073, "1983": 3719, "holding": 23948, "twenty": 5659, "isbn": 26746, "additional": 15650, "speed": 14771, "hour": 1860, "edition": 10215, "regular": 2025, "historic": 4311, "places": 30505, "whom": 1558, "shook": 19454, "movie": 2086, "km\u00b2": 17992, "secretary": 443, "prior": 24471, "report": 27715, "chicago": 13081, "read": 10331, "foundation": 18301, "view": 4894, "engine": 18845, "scored": 10844, "1982": 21769, "units": 3756, "ask": 13420, "airport": 15763, "property": 25887, "ready": 21921, "immediately": 28266, "lady": 7291, "month": 7859, "listed": 903, "contract": 654, "##de": 19755, "manager": 3312, "themselves": 29930, "lines": 2762, "##ki": 9685, "navy": 4158, "writer": 23282, "meant": 20903, "##ts": 3877, "runs": 20827, "##ro": 7233, "practice": 26713, "championships": 7042, "singer": 19458, "glass": 26801, "commission": 19576, "required": 24610, "forest": 29532, "starting": 12365, "culture": 9840, "generally": 25021, "giving": 10823, "access": 12152, "attended": 25743, "test": 23166, "couple": 16455, "stand": 15857, "catholic": 28697, "martin": 4994, "caught": 23112, "executive": 29174, "##less": 402, "eye": 26451, "##ey": 22840, "thinking": 20982, "chair": 9394, "quite": 23325, "shoulder": 13951, "1979": 29922, "hope": 14472, "decision": 30055, "plays": 5879, "defeated": 20252, "municipality": 26284, "whether": 12009, "structure": 28895, "offered": 16124, "slowly": 738, "pain": 3626, "ice": 19656, "direction": 30273, "##ion": 26056, "paper": 14872, "mission": 18328, "1981": 2472, "mostly": 17793, "200": 15308, "noted": 12401, "individual": 11187, "managed": 9239, "nature": 18766, "lives": 306, "plant": 26200, "##ha": 20323, "helped": 18609, "except": 24347, "studied": 2491, "computer": 6451, "figure": 25929, "relationship": 25791, "issue": 10436, "significant": 25446, "loss": 5349, "die": 10882, "smiled": 28573, "gun": 6423, "ago": 26935, "highest": 3888, "1972": 29404, "##am": 2160, "male": 30011, "bring": 29146, "goals": 25645, "mexico": 7694, "problem": 15262, "distance": 8566, "commercial": 24138, "completely": 5042, "location": 30333, "annual": 544, "famous": 11880, "drive": 12705, "1976": 10061, "neck": 3649, "1978": 5361, "surface": 29175, "caused": 19176, "italy": 26562, "understand": 20429, "greek": 687, "highway": 17584, "wrong": 17895, "hotel": 14767, "comes": 15710, "appearance": 5231, "joseph": 16490, "double": 19204, "issues": 2573, "musical": 7014, "companies": 27273, "castle": 17137, "income": 21697, "review": 9089, "assembly": 24127, "bass": 2183, "initially": 11817, "parliament": 12272, "artists": 6401, "experience": 25530, "1974": 16593, "particular": 18993, "walk": 9557, "foot": 8650, "engineering": 2265, "talking": 21644, "window": 3209, "dropped": 25242, "##ter": 9541, "miss": 6353, "baby": 24751, "boys": 10506, "break": 12270, "1975": 10242, "stars": 10056, "edge": 26426, "remember": 10222, "policy": 19859, "carried": 5757, "train": 26171, "stadium": 14113, "bar": 15214, "sex": 5320, "angeles": 20837, "evidence": 7301, "##ge": 8036, "becoming": 9226, "assistant": 10245, "soviet": 6018, "1977": 5984, "upper": 11976, "step": 19810, "wing": 22164, "1970": 30411, "youth": 13707, "financial": 16322, "reach": 27979, "##ll": 1986, "actor": 13776, "numerous": 29367, "##se": 19806, "##st": 4741, "nodded": 11300, "arrived": 20697, "##ation": 23716, "minute": 4666, "##nt": 11147, "believed": 28664, "sorry": 22065, "complex": 5387, "beautiful": 22301, "victory": 11206, "associated": 3288, "temple": 22949, "1968": 23615, "1973": 18300, "chance": 2899, "perhaps": 18072, "metal": 10889, "##son": 24570, "1945": 1267, "bishop": 28101, "##et": 15443, "lee": 21352, "launched": 26204, "particularly": 5068, "tree": 8204, "le": 21474, "retired": 2101, "subject": 4840, "prize": 12593, "contains": 1536, "yeah": 12876, "theory": 5086, "empire": 21706, "##ce": 5286, "suddenly": 1152, "waiting": 18457, "trust": 22089, "recording": 15089, "##to": 15903, "happy": 10757, "terms": 20556, "camp": 15207, "champion": 25694, "1971": 3859, "religious": 29088, "pass": 27869, "zealand": 15200, "names": 17433, "2nd": 4897, "port": 13357, "ancient": 9230, "tom": 29609, "corner": 22168, "represented": 28175, "watch": 6565, "legal": 28935, "anti": 6037, "justice": 22178, "cause": 22081, "watched": 8987, "brothers": 7386, "45": 11284, "material": 30127, "changes": 19384, "simply": 1949, "response": 4991, "louis": 19870, "fast": 11562, "##ting": 13176, "answer": 8433, "60": 10647, "historical": 8094, "1969": 22113, "stories": 2936, "straight": 17900, "create": 20403, "feature": 18522, "increased": 23154, "rate": 26479, "administration": 19743, "virginia": 4197, "el": 27451, "activities": 17810, "cultural": 8494, "overall": 23509, "winner": 28335, "programs": 13857, "basketball": 26592, "legs": 18553, "guard": 17278, "beyond": 18949, "cast": 9253, "doctor": 16801, "mm": 715, "flight": 8184, "results": 20509, "remains": 4663, "cost": 20093, "effect": 3271, "winter": 30453, "##ble": 27651, "larger": 25531, "islands": 5702, "problems": 27495, "chairman": 1604, "grew": 30147, "commander": 16604, "isn": 525, "1967": 20217, "pay": 17871, "failed": 18475, "selected": 29179, "hurt": 12659, "fort": 23792, "box": 23722, "regiment": 22474, "majority": 7368, "journal": 23252, "35": 12735, "edward": 12559, "plans": 6283, "##ke": 1167, "##ni": 10161, "shown": 9594, "pretty": 13167, "irish": 15738, "characters": 21295, "directly": 12713, "scene": 8743, "likely": 24317, "operated": 24276, "allow": 24467, "spring": 2561, "##j": 13885, "junior": 6503, "matches": 25415, "looks": 2527, "mike": 26815, "houses": 30183, "fellow": 2342, "##tion": 28590, "beach": 18895, "marriage": 190, "##ham": 13, "##ive": 7790, "rules": 10193, "oil": 8473, "65": 5026, "florida": 8041, "expected": 21938, "nearby": 16566, "congress": 7223, "sam": 4565, "peace": 986, "recent": 27602, "iii": 10027, "wait": 20479, "subsequently": 14715, "cell": 15671, "##do": 16883, "variety": 11601, "serving": 25748, "agreed": 28209, "please": 17699, "poor": 3253, "joe": 30113, "pacific": 1911, "attempt": 26752, "wood": 15666, "democratic": 23101, "piece": 4328, "prime": 13536, "##ca": 9135, "rural": 4569, "mile": 8947, "touch": 13396, "appears": 13759, "township": 21169, "1964": 23936, "1966": 9954, "soldiers": 14676, "##men": 420, "##ized": 10944, "1965": 8972, "pennsylvania": 1947, "closer": 14021, "fighting": 24002, "claimed": 12443, "score": 20570, "jones": 23805, "physical": 452, "editor": 5911, "##ous": 11194, "filled": 14672, "genus": 24157, "specific": 10640, "sitting": 15451, "super": 272, "mom": 19560, "##va": 15498, "therefore": 19229, "supported": 10614, "status": 20402, "fear": 5830, "cases": 12917, "store": 27317, "meaning": 30510, "wales": 17594, "minor": 29208, "spain": 4872, "tower": 686, "focus": 6333, "vice": 23087, "frank": 23659, "follow": 15031, "parish": 6464, "separate": 25556, "golden": 19752, "horse": 6301, "fifth": 14132, "remaining": 18353, "branch": 8553, "32": 20923, "presented": 23555, "stared": 12694, "##id": 12048, "uses": 2791, "secret": 3437, "forms": 22004, "##co": 262, "baseball": 24150, "exactly": 27415, "##ck": 19123, "choice": 807, "note": 28957, "discovered": 3842, "travel": 23181, "composed": 23720, "truth": 23044, "russia": 29798, "ball": 12074, "color": 8401, "kiss": 16344, "dad": 1826, "wind": 8052, "continue": 23996, "ring": 6781, "referred": 27975, "numbers": 8546, "digital": 11462, "greater": 12278, "##ns": 18386, "metres": 12161, "slightly": 8019, "direct": 6403, "increase": 13665, "1960": 16534, "responsible": 12499, "crew": 19399, "rule": 15730, "trees": 19197, "troops": 10683, "##no": 29875, "broke": 18376, "goes": 18269, "individuals": 15621, "hundred": 20955, "weight": 27043, "creek": 24199, "sleep": 17461, "memory": 17395, "defense": 15237, "provides": 6398, "ordered": 7032, "code": 3370, "value": 722, "jewish": 3946, "windows": 11225, "1944": 20430, "safe": 10605, "judge": 9058, "whatever": 21312, "corps": 23362, "realized": 23987, "growing": 9757, "pre": 480, "##ga": 10490, "cities": 2878, "alexander": 21745, "gaze": 6989, "lies": 16997, "spread": 23296, "scott": 3127, "letter": 21772, "showed": 21990, "situation": 29928, "mayor": 1743, "transport": 18790, "watching": 2302, "workers": 22886, "extended": 17075, "##li": 8138, "expression": 18880, "normal": 17704, "##ment": 9656, "chart": 21392, "multiple": 11005, "border": 8684, "##ba": 17276, "host": 19937, "##ner": 21582, "daily": 25995, "mrs": 1118, "walls": 20055, "piano": 24984, "##ko": 7994, "heat": 3508, "cannot": 8320, "##ate": 1585, "earned": 26976, "products": 12516, "drama": 4228, "era": 21527, "authority": 21131, "seasons": 19684, "join": 30394, "grade": 12231, "##io": 22741, "sign": 17933, "difficult": 3268, "machine": 25688, "1963": 21992, "territory": 23709, "mainly": 7453, "##wood": 20427, "stations": 12407, "squadron": 5803, "1962": 4731, "stepped": 1340, "iron": 16430, "19th": 26375, "##led": 3136, "serve": 20105, "appear": 24952, "sky": 4293, "speak": 15677, "broken": 22636, "charge": 2671, "knowledge": 1225, "kilometres": 29999, "removed": 24735, "ships": 7776, "article": 11823, "campus": 24637, "simple": 27194, "##ty": 20882, "pushed": 25680, "britain": 21863, "##ve": 27734, "leaves": 15663, "recently": 15479, "cd": 30442, "soft": 19155, "boston": 24829, "latter": 27770, "easy": 23180, "acquired": 5358, "poland": 20497, "##sa": 24553, "quality": 8441, "officers": 19452, "presence": 8304, "planned": 19942, "nations": 24652, "mass": 20521, "broadcast": 25441, "jean": 10773, "share": 23074, "image": 12967, "influence": 858, "wild": 6774, "offer": 30150, "emperor": 22131, "electric": 7771, "reading": 9855, "headed": 8212, "ability": 661, "promoted": 27905, "yellow": 543, "ministry": 21232, "1942": 19628, "throat": 20366, "smaller": 10574, "politician": 1807, "##by": 1277, "latin": 5687, "spoke": 11899, "cars": 11229, "williams": 20908, "males": 22730, "lack": 12789, "pop": 12200, "80": 9346, "##ier": 1170, "acting": 5688, "seeing": 2001, "consists": 5455, "##ti": 4716, "estate": 16228, "1961": 28265, "pressure": 9658, "johnson": 24798, "newspaper": 25900, "jr": 975, "chris": 3369, "olympics": 15431, "online": 19213, "conditions": 14930, "beat": 24977, "elements": 878, "walking": 9712, "vote": 5775, "##field": 28381, "needs": 6177, "carolina": 20626, "text": 15962, "featuring": 21824, "global": 28221, "block": 5808, "shirt": 12939, "levels": 1248, "francisco": 29980, "purpose": 3442, "females": 15992, "et": 14086, "dutch": 10632, "duke": 10766, "ahead": 19664, "gas": 6789, "twice": 7509, "safety": 14886, "serious": 9574, "turning": 18625, "highly": 25372, "lieutenant": 4252, "firm": 18701, "maria": 17784, "amount": 16788, "mixed": 8769, "daniel": 13479, "proposed": 30002, "perfect": 19053, "agreement": 3963, "affairs": 2563, "3rd": 329, "seconds": 16158, "contemporary": 4852, "paid": 4623, "1943": 15069, "prison": 3447, "save": 10828, "kitchen": 9109, "label": 11324, "administrative": 28318, "intended": 18720, "constructed": 19118, "academic": 13148, "nice": 8033, "teacher": 3926, "races": 23961, "1956": 14810, "formerly": 1684, "corporation": 7862, "ben": 20820, "nation": 6606, "issued": 26496, "shut": 27078, "1958": 4233, "drums": 21559, "housing": 21867, "victoria": 17062, "seems": 23077, "opera": 18871, "1959": 19909, "graduated": 19823, "function": 27192, "von": 16834, "mentioned": 26236, "picked": 8116, "build": 7503, "recognized": 15935, "shortly": 30140, "protection": 27710, "picture": 22046, "notable": 13070, "exchange": 29515, "elections": 9530, "1980s": 26487, "loved": 22155, "percent": 10589, "racing": 26350, "fish": 16143, "elizabeth": 15402, "garden": 14632, "volume": 17241, "hockey": 10804, "1941": 18493, "beside": 6187, "settled": 24464, "##ford": 23198, "1940": 13989, "competed": 15035, "replied": 2954, "drew": 13512, "1948": 5332, "actress": 8826, "marine": 6313, "scotland": 17299, "steel": 17130, "glanced": 17272, "farm": 19768, "steve": 20575, "1957": 6394, "risk": 21358, "tonight": 28852, "positive": 17248, "magic": 9662, "singles": 8380, "effects": 8254, "gray": 9068, "screen": 17687, "dog": 26675, "##ja": 1729, "residents": 18316, "bus": 16772, "sides": 24992, "none": 19855, "secondary": 29025, "literature": 4655, "polish": 1040, "destroyed": 28432, "flying": 21898, "founder": 8520, "households": 9748, "1939": 1657, "lay": 6853, "reserve": 16568, "usa": 4085, "gallery": 585, "##ler": 26067, "1946": 5780, "industrial": 24198, "younger": 4777, "approach": 23027, "appearances": 17565, "urban": 16964, "ones": 16241, "1950": 8533, "finish": 26940, "avenue": 20977, "powerful": 24631, "fully": 6206, "growth": 9124, "page": 14551, "honor": 26290, "jersey": 9231, "projects": 11910, "advanced": 10237, "revealed": 22990, "basic": 19535, "90": 17684, "infantry": 16205, "pair": 5729, "equipment": 29310, "visit": 12435, "33": 27831, "evening": 6109, "search": 3879, "grant": 20513, "effort": 16855, "solo": 27571, "treatment": 6178, "buried": 14379, "republican": 3633, "primarily": 10967, "bottom": 29370, "owner": 28234, "1970s": 14451, "israel": 1940, "gives": 15108, "jim": 16789, "dream": 12093, "bob": 3340, "remain": 30245, "spot": 27485, "70": 14639, "notes": 29388, "produce": 22837, "champions": 1768, "contact": 29824, "ed": 16424, "soul": 8842, "accepted": 761, "ways": 13064, "del": 19018, "##ally": 1745, "losing": 5062, "split": 9964, "price": 2403, "capacity": 5812, "basis": 19252, "trial": 12181, "questions": 29106, "##ina": 23762, "1955": 23192, "20th": 25460, "guess": 29577, "officially": 21902, "memorial": 19488, "naval": 176, "initial": 12442, "##ization": 13780, "whispered": 7087, "median": 20567, "engineer": 22535, "##ful": 20627, "sydney": 24111, "##go": 26106, "columbia": 25769, "strength": 8512, "300": 26268, "1952": 8547, "tears": 11937, "senate": 5631, "00": 21969, "card": 15101, "asian": 1098, "agent": 21735, "1947": 9792, "software": 5463, "44": 25394, "draw": 10386, "warm": 20152, "supposed": 11051, "com": 26791, "pro": 924, "##il": 23429, "transferred": 7899, "leaned": 7512, "##at": 79, "candidate": 30030, "escape": 5585, "mountains": 17243, "asia": 9187, "potential": 10251, "activity": 477, "entertainment": 25525, "seem": 25214, "traffic": 11067, "jackson": 9273, "murder": 3461, "36": 25151, "slow": 25554, "product": 12165, "orchestra": 15450, "haven": 6693, "agency": 23157, "bbc": 14047, "taught": 15820, "website": 26163, "comedy": 5828, "unable": 27005, "storm": 9619, "planning": 1236, "albums": 8048, "rugby": 17342, "environment": 27217, "scientific": 8296, "grabbed": 24900, "protect": 25339, "##hi": 29784, "boat": 27399, "typically": 13595, "1954": 7346, "1953": 24893, "damage": 20743, "principal": 887, "divided": 3128, "dedicated": 15318, "mount": 4659, "ohio": 10697, "##berg": 26096, "pick": 17789, "fought": 11516, "driver": 28941, "##der": 712, "empty": 25613, "shoulders": 19919, "sort": 22957, "thank": 2810, "berlin": 15721, "prominent": 22856, "account": 14149, "freedom": 29423, "necessary": 15510, "efforts": 20199, "alex": 21567, "headquarters": 1298, "follows": 17064, "alongside": 3944, "des": 23391, "simon": 5769, "andrew": 21866, "suggested": 28823, "operating": 16148, "learning": 10600, "steps": 3750, "1949": 18632, "sweet": 23546, "technical": 27051, "begin": 13268, "easily": 13467, "34": 20026, "teeth": 23747, "speaking": 24136, "settlement": 19097, "scale": 3867, "##sh": 17447, "renamed": 27366, "ray": 20454, "max": 3988, "enemy": 13106, "semi": 11420, "joint": 4523, "compared": 8853, "##rd": 19410, "scottish": 19815, "leadership": 9175, "analysis": 26861, "offers": 6798, "georgia": 29911, "pieces": 15274, "captured": 7304, "animal": 27176, "deputy": 15437, "guest": 30156, "organized": 20641, "##lin": 9569, "tony": 29101, "combined": 26215, "method": 26072, "challenge": 15127, "1960s": 15119, "huge": 21302, "wants": 14109, "battalion": 25389, "sons": 18168, "rise": 23088, "crime": 3199, "types": 16225, "facilities": 14301, "telling": 28242, "path": 9503, "1951": 23257, "platform": 27668, "sit": 15947, "1990s": 1714, "##lo": 9294, "tells": 23039, "assigned": 20200, "rich": 7351, "pull": 14198, "##ot": 10593, "commonly": 25348, "alive": 1496, "##za": 22593, "letters": 10280, "concept": 11850, "conducted": 4073, "wearing": 1291, "happen": 6740, "bought": 8133, "becomes": 16451, "holy": 9261, "gets": 16469, "ocean": 4561, "defeat": 10393, "languages": 7151, "purchased": 29009, "coffee": 21661, "occurred": 14867, "titled": 16409, "##q": 6432, "declared": 2719, "applied": 14877, "sciences": 29673, "concert": 27660, "sounds": 14744, "jazz": 12390, "brain": 30253, "##me": 27438, "painting": 14822, "fleet": 10140, "tax": 26198, "nick": 3829, "##ius": 9734, "michigan": 15070, "count": 18154, "animals": 28821, "leaders": 7842, "episodes": 28031, "##line": 14310, "content": 19931, "##den": 5048, "birth": 26954, "##it": 28350, "clubs": 29656, "64": 7504, "palace": 21957, "critical": 12615, "refused": 4878, "fair": 28042, "leg": 23713, "laughed": 10742, "returning": 29037, "surrounding": 10464, "participated": 12947, "formation": 5049, "lifted": 22711, "pointed": 24872, "connected": 14890, "rome": 18964, "medicine": 2943, "laid": 26400, "taylor": 28635, "santa": 5997, "powers": 12719, "adam": 19667, "tall": 2976, "shared": 19647, "focused": 21753, "knowing": 8791, "yards": 25172, "entrance": 26574, "falls": 18001, "##wa": 21896, "calling": 19837, "##ad": 19498, "sources": 29966, "chosen": 13491, "beneath": 845, "resources": 6200, "yard": 21971, "##ite": 25977, "nominated": 26504, "silence": 8936, "zone": 21638, "defined": 2005, "##que": 7573, "gained": 1407, "thirty": 13723, "38": 13924, "bodies": 2825, "moon": 18791, "##ard": 1615, "adopted": 11573, "christmas": 8669, "widely": 8333, "register": 257, "apart": 15181, "iran": 2020, "premier": 13332, "serves": 9417, "du": 13411, "unknown": 4463, "parties": 405, "##les": 12893, "generation": 20966, "##ff": 29291, "continues": 18799, "quick": 30437, "fields": 23765, "brigade": 28420, "quiet": 10927, "teaching": 27807, "clothes": 27785, "impact": 593, "weapons": 22287, "partner": 3792, "flat": 5799, "theater": 13918, "supreme": 13983, "1938": 26868, "37": 1956, "relations": 21309, "##tor": 21418, "plants": 21823, "suffered": 11101, "1936": 602, "wilson": 20131, "kids": 14302, "begins": 21810, "##age": 12351, "1918": 16690, "seats": 27993, "armed": 1892, "internet": 2594, "models": 1545, "worth": 23994, "laws": 8622, "400": 5761, "communities": 9583, "classes": 30086, "background": 23959, "knows": 27060, "thanks": 27677, "quarter": 21584, "reaching": 4799, "humans": 11825, "carry": 29568, "killing": 30025, "format": 18372, "kong": 5940, "hong": 14552, "setting": 18490, "75": 29884, "architecture": 15975, "disease": 26460, "railroad": 16165, "inc": 20975, "possibly": 3001, "wish": 22888, "arthur": 1780, "thoughts": 30325, "harry": 20450, "doors": 24968, "density": 3238, "##di": 4093, "crowd": 26721, "illinois": 6721, "stomach": 7381, "tone": 6080, "unique": 5926, "reports": 13312, "anyway": 20071, "##ir": 24447, "liberal": 10369, "der": 24989, "vehicle": 5337, "thick": 29129, "dry": 5619, "drug": 17671, "faced": 17936, "largely": 9640, "facility": 12293, "theme": 24686, "holds": 18823, "creation": 17946, "strange": 22657, "colonel": 14687, "##mi": 18837, "revolution": 17607, "bell": 12648, "politics": 8864, "turns": 8001, "silent": 4334, "rail": 26781, "relief": 21963, "independence": 3704, "combat": 12469, "shape": 11537, "write": 12955, "determined": 26576, "sales": 3363, "learned": 7794, "4th": 21191, "finger": 9519, "oxford": 11842, "providing": 22447, "1937": 13862, "heritage": 22676, "fiction": 13156, "situated": 4435, "designated": 22659, "allowing": 16481, "distribution": 20493, "hosted": 29558, "##est": 19009, "sight": 14171, "interview": 21585, "estimated": 24292, "reduced": 11667, "##ria": 23862, "toronto": 19010, "footballer": 14813, "keeping": 28469, "guys": 10912, "damn": 3218, "claim": 4967, "motion": 13876, "sport": 16928, "sixth": 25696, "stayed": 4791, "##ze": 18409, "en": 18151, "rear": 29972, "receive": 15791, "handed": 2134, "twelve": 7057, "dress": 387, "audience": 24670, "granted": 27559, "brazil": 16177, "##well": 5689, "spirit": 24443, "##ated": 18908, "noticed": 21989, "etc": 18357, "olympic": 1964, "representative": 7293, "eric": 24635, "tight": 22115, "trouble": 4848, "reviews": 24346, "drink": 2652, "vampire": 22829, "missing": 9586, "roles": 27981, "ranked": 8749, "newly": 30277, "household": 3957, "finals": 19763, "wave": 4290, "critics": 10400, "##ee": 14496, "phase": 2737, "massachusetts": 18960, "pilot": 18222, "unlike": 1112, "philadelphia": 18121, "bright": 27159, "guns": 10831, "crown": 2947, "organizations": 5867, "roof": 20523, "42": 12227, "respectively": 6154, "clearly": 27254, "tongue": 21543, "marked": 11563, "circle": 29110, "fox": 6053, "korea": 11227, "bronze": 25136, "brian": 19583, "expanded": 17254, "sexual": 12210, "supply": 19089, "yourself": 21170, "inspired": 25968, "labour": 6369, "fc": 22243, "##ah": 9477, "reference": 29474, "vision": 12598, "draft": 16949, "connection": 840, "brand": 27769, "reasons": 5618, "1935": 20543, "classic": 30446, "driving": 22341, "trip": 11404, "jesus": 1401, "cells": 24101, "entry": 15438, "1920": 22879, "neither": 19265, "trail": 4436, "claims": 7206, "atlantic": 4541, "orders": 22787, "labor": 25994, "nose": 6437, "afraid": 11498, "identified": 26166, "intelligence": 27863, "calls": 556, "cancer": 3015, "attacked": 29803, "passing": 17207, "stephen": 4992, "positions": 19112, "imperial": 7513, "grey": 16671, "jason": 11934, "39": 14537, "sunday": 16202, "48": 27843, "swedish": 26255, "avoid": 7768, "extra": 10522, "uncle": 5288, "message": 17414, "covers": 29636, "allows": 13056, "surprise": 4921, "materials": 29960, "fame": 6885, "hunter": 14178, "##ji": 10121, "1930": 16725, "citizens": 2154, "figures": 17373, "davis": 5931, "environmental": 21136, "confirmed": 16025, "shit": 10041, "titles": 16804, "di": 350, "performing": 6856, "difference": 26025, "acts": 14380, "attacks": 5088, "##ov": 2102, "existing": 26116, "votes": 9260, "opportunity": 21680, "nor": 30103, "shop": 28924, "entirely": 23164, "trains": 19348, "opposite": 7056, "pakistan": 27029, "##pa": 1890, "develop": 18528, "resulted": 1994, "representatives": 6159, "actions": 16806, "reality": 29249, "pressed": 25891, "##ish": 2272, "barely": 2979, "wine": 461, "conversation": 10911, "faculty": 23329, "northwest": 13890, "ends": 17829, "documentary": 11618, "nuclear": 17605, "stock": 22821, "grace": 5648, "sets": 225, "eat": 2418, "alternative": 13540, "##ps": 12267, "bag": 19370, "resulting": 9898, "creating": 1074, "surprised": 13428, "cemetery": 16249, "1919": 22848, "drop": 20410, "finding": 11237, "sarah": 23065, "cricket": 15758, "streets": 10865, "tradition": 23531, "ride": 26956, "1933": 26617, "exhibition": 28600, "target": 10397, "ear": 27148, "explained": 1744, "rain": 16100, "composer": 12144, "injury": 12703, "apartment": 27447, "municipal": 27642, "educational": 4040, "occupied": 27619, "netherlands": 9042, "clean": 5646, "billion": 30003, "constitution": 24472, "learn": 5370, "1914": 11663, "maximum": 971, "classical": 20483, "francis": 3486, "lose": 2431, "opposition": 23837, "jose": 13600, "ontario": 16441, "bear": 20273, "core": 18534, "hills": 4877, "rolled": 13746, "ending": 5890, "drawn": 5441, "permanent": 1038, "fun": 16324, "##tes": 5146, "##lla": 16019, "lewis": 6063, "sites": 4079, "chamber": 13239, "ryan": 7717, "##way": 15783, "scoring": 22501, "height": 18514, "1934": 14888, "##house": 13870, "lyrics": 14761, "staring": 10696, "55": 28013, "officials": 2119, "1917": 27965, "snow": 23719, "oldest": 28312, "##tic": 21553, "orange": 8904, "##ger": 2626, "qualified": 24113, "interior": 6461, "apparently": 28708, "succeeded": 25712, "thousand": 16978, "dinner": 7602, "lights": 19236, "existence": 22071, "fans": 19129, "heavily": 29535, "41": 3686, "greatest": 8159, "conservative": 24261, "send": 18592, "bowl": 7793, "plus": 3047, "enter": 12326, "catch": 28259, "##un": 9359, "economy": 3634, "duty": 4801, "1929": 29337, "speech": 21111, "authorities": 13666, "princess": 17335, "performances": 26747, "versions": 643, "shall": 8428, "graduate": 12919, "pictures": 12360, "effective": 26333, "remembered": 6849, "poetry": 21546, "desk": 23005, "crossed": 2231, "starring": 4906, "starts": 6009, "passenger": 785, "sharp": 11352, "##ant": 18788, "acres": 14014, "ass": 16199, "weather": 13071, "falling": 21542, "rank": 29072, "fund": 10738, "supporting": 23018, "check": 4908, "adult": 2554, "publishing": 14659, "heads": 24934, "cm": 3696, "southeast": 10756, "lane": 2646, "##burg": 7605, "application": 24049, "bc": 4418, "##ura": 24246, "les": 12799, "condition": 26396, "transfer": 18891, "prevent": 16459, "display": 1350, "ex": 22585, "regions": 21420, "earl": 14755, "federation": 28292, "cool": 22723, "relatively": 11117, "answered": 2114, "besides": 7435, "1928": 28605, "obtained": 29346, "portion": 29195, "##town": 23096, "mix": 5540, "##ding": 10447, "reaction": 26756, "liked": 8139, "dean": 4005, "express": 7648, "peak": 8618, "1932": 20597, "##tte": 21664, "counter": 13266, "religion": 12532, "chain": 7103, "rare": 23209, "miller": 10516, "convention": 29185, "aid": 15260, "lie": 17306, "vehicles": 19504, "mobile": 23832, "perform": 14176, "squad": 7288, "wonder": 24255, "lying": 23970, "crazy": 7529, "sword": 23486, "##ping": 13234, "attempted": 14837, "centuries": 17855, "weren": 6537, "philosophy": 22721, "category": 5846, "##ize": 14084, "anna": 28486, "interested": 1288, "47": 17268, "sweden": 20928, "wolf": 1347, "frequently": 17322, "abandoned": 13272, "kg": 19720, "literary": 15567, "alliance": 11020, "task": 29817, "entitled": 5777, "##ay": 21006, "threw": 5892, "promotion": 27842, "factory": 27786, "tiny": 9963, "soccer": 5818, "visited": 12260, "matt": 25674, "fm": 22247, "achieved": 1772, "52": 13646, "defence": 20220, "internal": 29324, "persian": 7688, "43": 11314, "methods": 1893, "##ging": 19438, "arrested": 25986, "otherwise": 27997, "cambridge": 25263, "programming": 18818, "villages": 19287, "elementary": 21509, "districts": 13671, "rooms": 5451, "criminal": 26398, "conflict": 23608, "worry": 11706, "trained": 19093, "1931": 18600, "attempts": 21893, "waited": 881, "signal": 10896, "bird": 19868, "truck": 24561, "subsequent": 22265, "programme": 12405, "##ol": 24387, "ad": 28593, "49": 27712, "communist": 25309, "details": 29830, "faith": 28450, "sector": 27118, "patrick": 19250, "carrying": 23507, "laugh": 22185, "##ss": 14662, "controlled": 23886, "korean": 12557, "showing": 13250, "origin": 13419, "fuel": 16639, "evil": 24442, "1927": 30376, "##ent": 2895, "brief": 20104, "identity": 13588, "darkness": 6126, "address": 29941, "pool": 17023, "missed": 20568, "publication": 26123, "web": 24177, "planet": 18416, "ian": 16374, "anne": 11255, "wings": 7828, "invited": 26118, "##tt": 7123, "briefly": 1660, "standards": 28091, "kissed": 3434, "##be": 2698, "ideas": 30222, "climate": 29504, "causing": 21381, "walter": 20664, "worse": 17273, "albert": 18064, "articles": 3845, "winners": 2553, "desire": 18211, "aged": 4479, "northeast": 29047, "dangerous": 26490, "gate": 26897, "doubt": 26514, "1922": 16242, "wooden": 23816, "multi": 172, "##ky": 27795, "poet": 13730, "rising": 18763, "funding": 12951, "46": 2642, "communications": 7655, "communication": 25893, "violence": 18459, "copies": 26214, "prepared": 10856, "ford": 10055, "investigation": 9879, "skills": 22127, "1924": 28240, "pulling": 19958, "electronic": 27281, "##ak": 28260, "##ial": 21447, "##han": 28732, "containing": 17265, "ultimately": 11064, "offices": 7580, "singing": 26327, "understanding": 8771, "restaurant": 23324, "tomorrow": 13104, "fashion": 13993, "christ": 1415, "ward": 16538, "da": 7920, "pope": 7424, "stands": 9369, "5th": 20391, "flow": 19979, "studios": 5654, "aired": 13406, "commissioned": 15632, "contained": 27634, "exist": 6884, "fresh": 9523, "americans": 16645, "##per": 23871, "wrestling": 1473, "approved": 24214, "kid": 3161, "employed": 1596, "respect": 12890, "suit": 12959, "1925": 28386, "angel": 15644, "asking": 26626, "increasing": 18120, "frame": 23297, "angry": 28331, "selling": 26692, "1950s": 9257, "thin": 23743, "finds": 30261, "##nd": 2159, "temperature": 7281, "statement": 27751, "ali": 6728, "explain": 20635, "inhabitants": 16161, "towns": 6420, "extensive": 12098, "narrow": 23194, "51": 14889, "jane": 8003, "flowers": 28298, "images": 14253, "promise": 3767, "somewhere": 27714, "object": 29735, "fly": 14350, "closely": 16803, "##ls": 20545, "1912": 12302, "bureau": 24019, "cape": 26319, "1926": 15923, "weekly": 9052, "presidential": 6077, "legislative": 14342, "1921": 15034, "##ai": 27801, "##au": 22476, "launch": 12073, "founding": 15340, "##ny": 23836, "978": 23235, "##ring": 18752, "artillery": 8543, "strike": 15954, "un": 17311, "institutions": 4001, "roll": 7410, "writers": 4499, "landing": 24790, "chose": 418, "kevin": 25874, "anymore": 21807, "pp": 25368, "##ut": 6905, "attorney": 9718, "fit": 4742, "dan": 4053, "billboard": 4892, "receiving": 18516, "agricultural": 22149, "breaking": 18280, "sought": 30298, "dave": 28049, "admitted": 26024, "lands": 5701, "mexican": 20604, "##bury": 9000, "charlie": 1522, "specifically": 26643, "hole": 12965, "iv": 15343, "howard": 2918, "credit": 5284, "moscow": 24788, "roads": 30278, "accident": 5176, "1923": 28174, "proved": 5861, "wear": 14161, "struck": 13822, "hey": 25338, "guards": 27332, "stuff": 28000, "slid": 17091, "expansion": 3937, "1915": 10971, "cat": 29783, "anthony": 7625, "##kin": 23026, "melbourne": 4377, "opposed": 27137, "sub": 23059, "southwest": 1525, "architect": 12644, "failure": 3173, "plane": 22982, "1916": 5059, "##ron": 5093, "map": 12162, "camera": 11118, "tank": 8353, "listen": 4130, "regarding": 21036, "wet": 16699, "introduction": 13898, "metropolitan": 23099, "link": 18318, "ep": 327, "fighter": 11906, "inch": 12910, "grown": 11478, "gene": 26058, "anger": 28949, "fixed": 4229, "buy": 14671, "dvd": 28888, "khan": 22094, "domestic": 9142, "worldwide": 16285, "chapel": 26014, "mill": 6752, "functions": 30157, "examples": 23308, "##head": 20461, "developing": 15591, "1910": 30427, "turkey": 7553, "hits": 29480, "pocket": 2053, "antonio": 14039, "papers": 1345, "grow": 26218, "unless": 17185, "circuit": 13499, "18th": 5637, "concerned": 4084, "attached": 14819, "journalist": 15588, "selection": 25636, "journey": 13529, "converted": 8831, "provincial": 28060, "painted": 17717, "hearing": 24665, "aren": 13566, "bands": 20348, "negative": 8227, "aside": 19916, "wondered": 29829, "knight": 21717, "lap": 21625, "survey": 6987, "ma": 24490, "##ow": 18724, "noise": 22815, "billy": 22540, "##ium": 6680, "shooting": 2465, "guide": 21657, "bedroom": 2934, "priest": 11097, "resistance": 6248, "motor": 27262, "homes": 17264, "sounded": 2354, "giant": 18992, "##mer": 6953, "150": 3780, "scenes": 4958, "equal": 7977, "comic": 13344, "patients": 17914, "hidden": 18980, "solid": 20946, "actual": 27978, "bringing": 18829, "afternoon": 22525, "touched": 7119, "funds": 3958, "wedding": 5417, "consisted": 18707, "marie": 29850, "canal": 28902, "sr": 17234, "kim": 2219, "treaty": 25340, "turkish": 4911, "recognition": 12394, "residence": 18308, "cathedral": 11615, "broad": 16869, "knees": 1508, "incident": 11682, "shaped": 27902, "fired": 13874, "norwegian": 22367, "handle": 10142, "cheek": 2771, "contest": 8480, "represent": 29663, "##pe": 26762, "representing": 28460, "beauty": 2257, "##sen": 24089, "birds": 8336, "advantage": 19998, "emergency": 8282, "wrapped": 8324, "drawing": 21892, "notice": 2868, "pink": 7319, "broadcasting": 23759, "##ong": 20267, "somehow": 17502, "bachelor": 25251, "seventh": 6899, "collected": 26664, "registered": 2009, "establishment": 5752, "alan": 3961, "assumed": 16975, "chemical": 23781, "personnel": 15668, "roger": 25371, "retirement": 1035, "jeff": 6257, "portuguese": 8967, "wore": 2948, "tied": 13333, "device": 24831, "threat": 18616, "progress": 20012, "advance": 16608, "##ised": 16898, "banks": 22810, "hired": 9207, "manchester": 29092, "nfl": 15066, "teachers": 23172, "structures": 30417, "forever": 30360, "##bo": 16453, "tennis": 27745, "helping": 23150, "saturday": 10923, "sale": 28152, "applications": 7913, "junction": 6137, "hip": 29181, "incorporated": 7531, "neighborhood": 20136, "dressed": 10008, "ceremony": 3672, "##ds": 15077, "influenced": 3645, "hers": 18436, "visual": 8857, "stairs": 22362, "decades": 11784, "inner": 5243, "kansas": 18219, "hung": 8393, "hoped": 4262, "gain": 25012, "scheduled": 8154, "downtown": 2693, "engaged": 8736, "austria": 13642, "clock": 5709, "norway": 15201, "certainly": 23494, "pale": 4465, "protected": 11622, "1913": 22412, "victor": 28525, "employees": 25292, "plate": 25488, "putting": 4459, "surrounded": 4039, "##ists": 19493, "finishing": 23182, "blues": 20828, "tropical": 8683, "##ries": 28075, "minnesota": 444, "consider": 856, "philippines": 8498, "accept": 3380, "54": 29669, "retrieved": 9403, "1900": 17430, "concern": 29711, "anderson": 19514, "properties": 10936, "institution": 1653, "gordon": 27687, "successfully": 18873, "vietnam": 25772, "##dy": 11785, "backing": 24524, "outstanding": 19223, "muslim": 5934, "crossing": 10443, "folk": 20740, "producing": 28392, "usual": 22543, "demand": 6319, "occurs": 15177, "observed": 27158, "lawyer": 3712, "educated": 29396, "##ana": 6654, "kelly": 7059, "string": 11863, "pleasure": 25837, "budget": 28661, "items": 19564, "quietly": 27918, "colorado": 24034, "philip": 4002, "typical": 20887, "##worth": 11572, "derived": 17052, "600": 15099, "survived": 8295, "asks": 29463, "mental": 12588, "##ide": 12041, "56": 26795, "jake": 5869, "jews": 28263, "distinguished": 13528, "ltd": 18656, "1911": 20337, "sri": 8236, "extremely": 9941, "53": 30425, "athletic": 11433, "loud": 17090, "thousands": 10431, "worried": 21674, "shadow": 9454, "transportation": 13495, "horses": 29937, "weapon": 11424, "arena": 22910, "importance": 4722, "users": 10699, "tim": 18030, "objects": 4284, "contributed": 3918, "dragon": 23924, "douglas": 1402, "aware": 4451, "senator": 16435, "johnny": 7676, "jordan": 7992, "sisters": 28534, "engines": 10022, "flag": 8179, "investment": 12546, "samuel": 10541, "shock": 29860, "capable": 6345, "clark": 5969, "row": 14720, "wheel": 9426, "refers": 14931, "session": 24976, "familiar": 6833, "biggest": 15843, "wins": 12384, "hate": 21683, "maintained": 25201, "drove": 24598, "hamilton": 23907, "request": 6376, "expressed": 4128, "injured": 9777, "underground": 11705, "churches": 27868, "walker": 18149, "wars": 10724, "tunnel": 29387, "passes": 17547, "stupid": 10196, "agriculture": 28385, "softly": 20858, "cabinet": 2840, "regarded": 22404, "joining": 22233, "indiana": 3229, "##ea": 1626, "##ms": 12827, "push": 17951, "dates": 25212, "spend": 13581, "behavior": 24518, "woods": 2937, "protein": 22306, "gently": 19383, "chase": 23177, "morgan": 3394, "mention": 6983, "burning": 17474, "wake": 20216, "combination": 26340, "occur": 9891, "mirror": 20151, "leads": 18725, "jimmy": 21378, "indeed": 2994, "impossible": 9663, "singapore": 3308, "paintings": 4291, "covering": 29236, "##nes": 24969, "soldier": 12679, "locations": 11350, "attendance": 5629, "sell": 8838, "historian": 25433, "wisconsin": 6355, "invasion": 13809, "argued": 19219, "painter": 7727, "diego": 5749, "changing": 12639, "egypt": 15162, "##don": 16901, "experienced": 23584, "inches": 28645, "##ku": 20090, "missouri": 14786, "vol": 18618, "grounds": 29987, "spoken": 18038, "switzerland": 2572, "##gan": 13291, "reform": 2169, "rolling": 13655, "ha": 10721, "forget": 2807, "massive": 26196, "resigned": 4809, "burned": 11198, "allen": 3919, "tennessee": 16657, "locked": 5448, "values": 1894, "improved": 17738, "##mo": 22510, "wounded": 18034, "universe": 21091, "sick": 26852, "dating": 28582, "facing": 4549, "pack": 1017, "purchase": 614, "user": 16003, "##pur": 9848, "moments": 7433, "##ul": 2194, "merged": 435, "anniversary": 24601, "1908": 116, "coal": 20004, "brick": 19282, "understood": 29336, "causes": 6060, "dynasty": 19281, "queensland": 16606, "establish": 22024, "stores": 15094, "crisis": 27721, "promote": 24244, "hoping": 20666, "views": 16880, "cards": 23985, "referee": 3353, "extension": 20870, "##si": 15868, "raise": 17802, "arizona": 1792, "improve": 22204, "colonial": 3426, "formal": 24361, "charged": 7672, "##rt": 13489, "palm": 16661, "lucky": 22824, "hide": 21596, "rescue": 11960, "faces": 10753, "95": 4933, "feelings": 12774, "candidates": 30496, "juan": 5627, "##ell": 17181, "goods": 9673, "6th": 7829, "courses": 21598, "weekend": 27394, "59": 22843, "luke": 14726, "cash": 28929, "fallen": 11140, "##om": 29056, "delivered": 17763, "affected": 11592, "installed": 14640, "carefully": 7066, "tries": 1423, "swiss": 29178, "hollywood": 24794, "costs": 7376, "lincoln": 26953, "responsibility": 6613, "##he": 23568, "shore": 4534, "file": 27950, "proper": 25288, "normally": 10904, "maryland": 21600, "assistance": 19070, "jump": 18014, "constant": 22329, "offering": 16206, "friendly": 10257, "waters": 24748, "persons": 19971, "realize": 4185, "contain": 20896, "trophy": 29631, "800": 5142, "partnership": 24531, "factor": 16407, "58": 11772, "musicians": 2071, "cry": 29916, "bound": 7712, "oregon": 17180, "indicated": 29360, "hero": 24527, "houston": 22555, "medium": 17394, "##ure": 600, "consisting": 23230, "somewhat": 26467, "##ara": 3597, "57": 14330, "cycle": 1610, "##che": 20085, "beer": 26843, "moore": 12125, "frederick": 22314, "gotten": 4082, "eleven": 23487, "worst": 2865, "weak": 15321, "approached": 3761, "arranged": 23807, "chin": 29229, "loan": 10190, "universal": 20277, "bond": 4374, "fifteen": 14952, "pattern": 3728, "disappeared": 14098, "##ney": 19335, "translated": 12570, "##zed": 25967, "lip": 7388, "arab": 15057, "capture": 17667, "interests": 417, "insurance": 6454, "##chi": 5047, "shifted": 23911, "cave": 23132, "prix": 10879, "warning": 24219, "sections": 9464, "courts": 12039, "coat": 2832, "plot": 7519, "smell": 2601, "feed": 26435, "golf": 647, "favorite": 4480, "maintain": 29633, "knife": 17067, "vs": 9931, "voted": 10782, "degrees": 18608, "finance": 30362, "quebec": 24455, "opinion": 22159, "translation": 811, "manner": 18403, "ruled": 5677, "operate": 3355, "productions": 18320, "choose": 1726, "musician": 29901, "discovery": 23035, "confused": 5684, "tired": 5254, "separated": 6032, "stream": 3622, "techniques": 15371, "committed": 28989, "attend": 16074, "ranking": 30307, "kings": 19546, "throw": 6017, "passengers": 26978, "measure": 23905, "horror": 11264, "fan": 13848, "mining": 29044, "sand": 5143, "danger": 22788, "salt": 2961, "calm": 4428, "decade": 19577, "dam": 22704, "require": 2818, "runner": 2467, "##ik": 24667, "rush": 20873, "associate": 4189, "greece": 10684, "##ker": 5534, "rivers": 20857, "consecutive": 6066, "matthew": 1962, "##ski": 11204, "sighed": 6210, "sq": 261, "documents": 3776, "steam": 799, "edited": 12044, "closing": 23512, "tie": 11762, "accused": 12783, "1905": 14974, "##ini": 22519, "islamic": 2152, "distributed": 27204, "directors": 5790, "organisation": 21983, "bruce": 7442, "7th": 7072, "breathing": 20799, "mad": 10854, "lit": 6842, "arrival": 28981, "concrete": 11652, "taste": 28270, "08": 26307, "composition": 15362, "shaking": 28775, "faster": 1343, "amateur": 24188, "adjacent": 22563, "stating": 9827, "1906": 15383, "twin": 25906, "flew": 16684, "##ran": 1862, "tokyo": 7170, "publications": 16733, "##tone": 19828, "obviously": 14515, "ridge": 13323, "storage": 21452, "1907": 25901, "carl": 8976, "pages": 19312, "concluded": 17218, "desert": 18109, "driven": 6284, "universities": 7836, "ages": 14646, "terminal": 19579, "sequence": 18265, "borough": 13181, "250": 20871, "constituency": 928, "creative": 6296, "cousin": 27087, "economics": 7263, "dreams": 6760, "margaret": 24119, "notably": 3446, "reduce": 8538, "montreal": 8394, "mode": 29246, "17th": 28470, "ears": 2292, "saved": 29603, "jan": 442, "vocal": 2514, "##ica": 22489, "1909": 23286, "andy": 13177, "##jo": 15204, "riding": 22143, "roughly": 29213, "threatened": 4610, "##ise": 7399, "meters": 26040, "meanwhile": 8450, "landed": 21696, "compete": 7594, "repeated": 10327, "grass": 21602, "czech": 21653, "regularly": 13094, "charges": 14358, "tea": 23014, "sudden": 10346, "appeal": 11616, "##ung": 22304, "solution": 29787, "describes": 14349, "pierre": 17601, "classification": 14539, "glad": 30289, "parking": 8183, "##ning": 1866, "belt": 22384, "physics": 24161, "99": 21090, "rachel": 28300, "add": 26055, "hungarian": 21586, "participate": 3690, "expedition": 19387, "damaged": 22643, "gift": 18081, "childhood": 21395, "85": 28280, "fifty": 24856, "##red": 21021, "mathematics": 28421, "jumped": 6374, "letting": 6079, "defensive": 15674, "mph": 28901, "##ux": 20807, "##gh": 6459, "testing": 26627, "##hip": 11325, "hundreds": 14928, "shoot": 9634, "owners": 20859, "matters": 2482, "smoke": 28425, "israeli": 27723, "kentucky": 245, "dancing": 7177, "mounted": 27025, "grandfather": 8142, "emma": 15518, "designs": 18801, "profit": 12608, "argentina": 17412, "##gs": 3873, "truly": 7755, "li": 1748, "lawrence": 18469, "cole": 5683, "begun": 12287, "detroit": 17213, "willing": 20761, "branches": 28359, "smiling": 15932, "decide": 2631, "miami": 11044, "enjoyed": 12025, "recordings": 3705, "##dale": 5318, "poverty": 24125, "ethnic": 21530, "gay": 18593, "##bi": 6381, "gary": 23218, "arabic": 30083, "09": 26789, "accompanied": 7285, "##one": 11049, "##ons": 17560, "fishing": 7336, "determine": 28819, "residential": 7595, "acid": 25742, "##ary": 26243, "alice": 3828, "returns": 16433, "starred": 29926, "mail": 8321, "##ang": 10952, "jonathan": 17628, "strategy": 9265, "##ue": 8786, "net": 19245, "forty": 3051, "cook": 7023, "businesses": 22682, "equivalent": 24732, "commonwealth": 22634, "distinct": 6233, "ill": 12822, "##cy": 27175, "seriously": 4488, "##ors": 13686, "##ped": 25870, "shift": 3206, "harris": 29981, "replace": 12605, "rio": 3956, "imagine": 25145, "formula": 21427, "ensure": 21776, "##ber": 12494, "additionally": 11632, "scheme": 29166, "conservation": 13389, "occasionally": 23564, "purposes": 9575, "feels": 22419, "favor": 16878, "##and": 15040, "##ore": 24130, "1930s": 1020, "contrast": 17564, "hanging": 15075, "hunt": 196, "movies": 14320, "1904": 22946, "instruments": 24273, "victims": 19117, "danish": 18341, "christopher": 996, "busy": 18018, "demon": 12062, "sugar": 11144, "earliest": 22480, "colony": 8761, "studying": 11895, "balance": 19542, "duties": 26271, "##ks": 25417, "belgium": 2250, "slipped": 26884, "carter": 22001, "05": 2080, "visible": 21501, "stages": 27328, "iraq": 22366, "fifa": 26630, "##im": 28517, "commune": 15161, "forming": 20095, "zero": 19217, "07": 2618, "continuing": 15662, "talked": 19896, "counties": 15550, "legend": 18057, "bathroom": 6312, "option": 11164, "tail": 17556, "clay": 7275, "daughters": 30148, "afterwards": 27231, "severe": 17657, "jaw": 22249, "visitors": 28367, "##ded": 25693, "devices": 30401, "aviation": 22357, "russell": 4278, "kate": 17792, "##vi": 12643, "entering": 6391, "subjects": 8010, "##ino": 21524, "temporary": 5025, "swimming": 7718, "forth": 2749, "smooth": 17184, "ghost": 4338, "audio": 17047, "bush": 28793, "operates": 22057, "rocks": 20432, "movements": 24341, "signs": 29542, "eddie": 25608, "##tz": 719, "ann": 27971, "voices": 14475, "honorary": 6339, "06": 26015, "memories": 8906, "dallas": 15005, "pure": 13538, "measures": 12641, "racial": 2940, "promised": 377, "66": 2468, "harvard": 2449, "ceo": 9411, "16th": 9710, "parliamentary": 24664, "indicate": 14255, "benefit": 11897, "flesh": 5692, "dublin": 10458, "louisiana": 10715, "1902": 4186, "1901": 14223, "patient": 5559, "sleeping": 4684, "1903": 8314, "membership": 19960, "coastal": 7584, "medieval": 25779, "wanting": 15864, "element": 27188, "scholars": 3687, "rice": 23357, "62": 9437, "limit": 14162, "survive": 6488, "makeup": 11640, "rating": 6883, "definitely": 21951, "collaboration": 28763, "obvious": 12773, "##tan": 5915, "boss": 23277, "ms": 19803, "baron": 5271, "birthday": 27517, "linked": 19885, "soil": 1884, "diocese": 11501, "##lan": 7865, "ncaa": 23423, "##mann": 15984, "offensive": 16115, "shell": 27900, "shouldn": 9084, "waist": 9344, "##tus": 29678, "plain": 13335, "ross": 2463, "organ": 16192, "resolution": 16533, "manufacturing": 2586, "adding": 14833, "relative": 30509, "kennedy": 28896, "98": 23537, "whilst": 4562, "moth": 20075, "marketing": 10026, "gardens": 13988, "crash": 12689, "72": 9763, "heading": 12504, "partners": 15247, "credited": 25507, "carlos": 22075, "moves": 21298, "cable": 22399, "##zi": 11449, "marshall": 29190, "##out": 7486, "depending": 30, "bottle": 19582, "represents": 1576, "rejected": 20439, "responded": 29564, "existed": 26240, "04": 6940, "jobs": 25150, "denmark": 6367, "lock": 5089, "##ating": 2370, "treated": 13803, "graham": 6714, "routes": 9334, "talent": 6393, "commissioner": 125, "drugs": 27185, "secure": 22491, "tests": 21961, "reign": 12804, "restored": 12581, "photography": 8638, "##gi": 22272, "contributions": 8199, "oklahoma": 19825, "designer": 9606, "disc": 8516, "grin": 11791, "seattle": 16303, "robin": 22536, "paused": 10316, "atlanta": 25626, "unusual": 2050, "##gate": 16233, "praised": 4901, "las": 14075, "laughing": 16270, "satellite": 4516, "hungary": 21354, "visiting": 23337, "##sky": 20259, "interesting": 5914, "factors": 17131, "deck": 16274, "poems": 24187, "norman": 1741, "##water": 19183, "stuck": 22062, "speaker": 29487, "rifle": 23234, "domain": 16559, "premiered": 11384, "##her": 20936, "dc": 16163, "comics": 13098, "actors": 1110, "01": 18508, "reputation": 19110, "eliminated": 8202, "8th": 2981, "ceiling": 19433, "prisoners": 3839, "script": 10127, "##nce": 9178, "leather": 9766, "austin": 3579, "mississippi": 18225, "rapidly": 6311, "admiral": 5123, "parallel": 10661, "charlotte": 2533, "guilty": 14127, "tools": 5157, "gender": 915, "divisions": 16095, "fruit": 6563, "##bs": 24797, "laboratory": 11522, "nelson": 12852, "fantasy": 14625, "marry": 6994, "rapid": 6460, "aunt": 29296, "tribe": 3612, "requirements": 19347, "aspects": 6205, "suicide": 4620, "amongst": 2493, "adams": 5907, "bone": 26491, "ukraine": 27481, "abc": 11139, "kick": 14693, "sees": 11855, "edinburgh": 1235, "clothing": 23173, "column": 27814, "rough": 15971, "gods": 19059, "hunting": 5560, "broadway": 28273, "gathered": 5360, "concerns": 26508, "##ek": 25824, "spending": 22753, "ty": 17460, "12th": 11435, "snapped": 21942, "requires": 5972, "solar": 1503, "bones": 9312, "cavalry": 22615, "##tta": 15072, "iowa": 12333, "drinking": 5125, "waste": 1663, "index": 1690, "franklin": 13365, "charity": 14518, "thompson": 19226, "stewart": 6287, "tip": 20621, "flash": 15158, "landscape": 14102, "friday": 25739, "enjoy": 19040, "singh": 7738, "poem": 13869, "listening": 1341, "##back": 14111, "eighth": 23687, "fred": 2286, "differences": 21719, "adapted": 22237, "bomb": 6051, "ukrainian": 251, "surgery": 5553, "corporate": 4370, "masters": 1501, "anywhere": 4283, "##more": 20953, "waves": 23161, "odd": 17031, "sean": 25276, "portugal": 4269, "orleans": 1801, "dick": 23054, "debate": 12355, "kent": 2089, "eating": 13729, "puerto": 30285, "cleared": 9028, "96": 2839, "expect": 26390, "cinema": 1114, "97": 16498, "guitarist": 16291, "blocks": 20359, "electrical": 16296, "agree": 18827, "involving": 21119, "depth": 20471, "dying": 19069, "panel": 10786, "struggle": 26836, "##ged": 12961, "peninsula": 19640, "adults": 8175, "novels": 18314, "emerged": 28820, "vienna": 9271, "metro": 2391, "debuted": 361, "shoes": 17619, "tamil": 782, "songwriter": 21496, "meets": 7139, "prove": 7735, "beating": 17727, "instance": 22841, "heaven": 4211, "scared": 13556, "sending": 18664, "marks": 9812, "artistic": 1367, "passage": 9174, "superior": 870, "03": 23379, "significantly": 23341, "shopping": 29219, "##tive": 22805, "retained": 26522, "##izing": 28163, "malaysia": 26380, "technique": 24895, "cheeks": 5282, "##ola": 30306, "warren": 6734, "maintenance": 26048, "destroy": 15688, "extreme": 15471, "allied": 18117, "120": 6771, "appearing": 22844, "##yn": 5287, "fill": 21619, "advice": 25965, "alabama": 24571, "qualifying": 23019, "policies": 13576, "cleveland": 7197, "hat": 24108, "battery": 11702, "smart": 28370, "authors": 5184, "10th": 30033, "soundtrack": 5273, "acted": 22883, "dated": 16687, "lb": 21646, "glance": 6576, "equipped": 29399, "coalition": 8942, "funny": 21028, "outer": 17321, "ambassador": 19839, "roy": 3934, "possibility": 11122, "couples": 12922, "campbell": 17857, "dna": 9745, "loose": 30335, "ethan": 6297, "supplies": 14034, "1898": 15097, "gonna": 19205, "88": 11318, "monster": 15460, "##res": 3020, "shake": 27012, "agents": 11460, "frequency": 14981, "springs": 27834, "dogs": 25278, "practices": 13567, "61": 8145, "gang": 1746, "plastic": 15167, "easier": 9185, "suggests": 16618, "gulf": 30196, "blade": 16556, "exposed": 9220, "colors": 30219, "industries": 1928, "markets": 15749, "pan": 10259, "nervous": 14789, "electoral": 6594, "charts": 10403, "legislation": 5148, "ownership": 22714, "##idae": 10565, "mac": 6699, "appointment": 11035, "shield": 28456, "copy": 22506, "assault": 2389, "socialist": 1176, "abbey": 21834, "monument": 8169, "license": 29142, "throne": 5327, "employment": 25628, "jay": 10877, "93": 6370, "replacement": 18519, "charter": 13565, "cloud": 9520, "powered": 3804, "suffering": 10340, "accounts": 26556, "oak": 18568, "connecticut": 5296, "strongly": 8046, "wright": 6199, "colour": 26117, "crystal": 8055, "13th": 17225, "context": 21642, "welsh": 10218, "networks": 28964, "voiced": 8121, "gabriel": 11398, "jerry": 894, "##cing": 11133, "forehead": 6981, "mp": 4748, "##ens": 21061, "manage": 7971, "schedule": 13438, "totally": 7554, "remix": 26422, "##ii": 16339, "forests": 10173, "occupation": 11938, "print": 14772, "nicholas": 21743, "brazilian": 27872, "strategic": 26605, "vampires": 14094, "engineers": 6365, "76": 15216, "roots": 18449, "seek": 3292, "correct": 8198, "instrumental": 14501, "und": 24971, "alfred": 3443, "backed": 1052, "hop": 4779, "##des": 9545, "stanley": 18602, "robinson": 17643, "traveled": 15055, "wayne": 13065, "welcome": 24595, "austrian": 1668, "achieve": 7078, "67": 17775, "exit": 7820, "rates": 16, "1899": 23502, "strip": 17071, "whereas": 12229, "##cs": 8482, "sing": 4527, "deeply": 7016, "adventure": 2997, "bobby": 24352, "rick": 27122, "jamie": 29351, "careful": 24015, "components": 27556, "cap": 21149, "useful": 75, "personality": 16766, "knee": 24123, "##shi": 24724, "pushing": 29406, "hosts": 25307, "02": 25923, "protest": 2728, "ca": 11830, "ottoman": 11120, "symphony": 29216, "##sis": 3174, "63": 12743, "boundary": 4727, "1890": 3592, "processes": 6977, "considering": 25699, "considerable": 12940, "tons": 5413, "##work": 13353, "##ft": 25448, "##nia": 2325, "cooper": 19700, "trading": 5030, "dear": 10363, "conduct": 5804, "91": 17194, "illegal": 14103, "apple": 10984, "revolutionary": 7316, "holiday": 27538, "definition": 5083, "harder": 25732, "##van": 15136, "jacob": 17247, "circumstances": 2715, "destruction": 9392, "##lle": 5726, "popularity": 21235, "grip": 4797, "classified": 19990, "liverpool": 28843, "donald": 14499, "baltimore": 20944, "flows": 2831, "seeking": 6513, "honour": 16219, "approval": 18686, "92": 24767, "mechanical": 10709, "till": 3754, "happening": 26529, "statue": 15581, "critic": 914, "increasingly": 17814, "immediate": 9366, "describe": 14062, "commerce": 8519, "stare": 29947, "##ster": 7706, "indonesia": 23097, "meat": 17709, "rounds": 30017, "boats": 18515, "baker": 15613, "orthodox": 818, "depression": 19721, "formally": 2850, "worn": 10160, "naked": 27754, "claire": 12706, "muttered": 10860, "sentence": 23993, "11th": 4086, "emily": 13952, "document": 13144, "77": 12683, "criticism": 14134, "wished": 24366, "vessel": 11110, "spiritual": 19402, "bent": 25113, "virgin": 28399, "parker": 19830, "minimum": 26934, "murray": 25381, "lunch": 8869, "danny": 29053, "printed": 11903, "compilation": 7337, "keyboards": 22679, "false": 3034, "blow": 9074, "belonged": 22793, "68": 530, "raising": 11989, "78": 3186, "cutting": 21433, "##board": 12132, "pittsburgh": 12446, "##up": 19608, "9th": 3315, "shadows": 18289, "81": 7640, "hated": 11809, "indigenous": 3785, "jon": 10956, "15th": 8867, "barry": 6850, "scholar": 9404, "ah": 23094, "##zer": 3167, "oliver": 15732, "##gy": 7567, "stick": 8855, "susan": 2439, "meetings": 2162, "attracted": 6867, "spell": 10014, "romantic": 15303, "##ver": 24648, "ye": 16761, "1895": 6638, "photo": 8366, "demanded": 27637, "customers": 19634, "##ac": 12243, "1896": 19901, "logan": 7186, "revival": 21174, "keys": 11221, "modified": 23139, "commanded": 28480, "jeans": 29706, "##ious": 3789, "upset": 3154, "raw": 20037, "phil": 17834, "detective": 22124, "hiding": 20752, "resident": 7322, "vincent": 1515, "##bly": 29788, "experiences": 6921, "diamond": 7458, "defeating": 16331, "coverage": 2349, "lucas": 16721, "external": 3270, "parks": 14422, "franchise": 14762, "helen": 26413, "bible": 27906, "successor": 7946, "percussion": 10735, "celebrated": 5518, "il": 9892, "lift": 11574, "profile": 8481, "clan": 15845, "romania": 25391, "##ied": 4563, "mills": 14850, "##su": 27157, "nobody": 24078, "achievement": 22216, "shrugged": 26095, "fault": 23914, "1897": 26814, "rhythm": 7129, "initiative": 10015, "breakfast": 27202, "carbon": 19788, "700": 18003, "69": 24568, "lasted": 20784, "violent": 6399, "74": 28307, "wound": 15535, "ken": 29426, "killer": 22098, "gradually": 1124, "filmed": 30322, "\u00b0c": 23203, "dollars": 10271, "processing": 13061, "94": 2801, "remove": 11464, "criticized": 22654, "guests": 28361, "sang": 29222, "chemistry": 4573, "##vin": 27901, "legislature": 8770, "disney": 3171, "##bridge": 4643, "uniform": 9323, "escaped": 15355, "integrated": 9747, "proposal": 14339, "purple": 13204, "denied": 3632, "liquid": 24628, "karl": 25665, "influential": 23333, "morris": 7574, "nights": 7371, "stones": 5294, "intense": 21259, "experimental": 24763, "twisted": 4225, "71": 26081, "84": 1982, "##ld": 15491, "pace": 17633, "nazi": 28245, "mitchell": 27654, "ny": 11599, "blind": 13504, "reporter": 13756, "newspapers": 14187, "14th": 20107, "centers": 22209, "burn": 13276, "basin": 17095, "forgotten": 17132, "surviving": 4226, "filed": 3032, "collections": 12188, "monastery": 11529, "losses": 23846, "manual": 6803, "couch": 19844, "description": 28053, "appropriate": 23845, "merely": 19771, "tag": 26785, "missions": 17569, "sebastian": 1583, "restoration": 21589, "replacing": 30160, "triple": 8406, "73": 1548, "elder": 14529, "julia": 26750, "warriors": 16729, "benjamin": 5421, "julian": 2792, "convinced": 15574, "stronger": 367, "amazing": 5766, "declined": 5469, "versus": 21292, "merchant": 28068, "happens": 20258, "output": 4402, "finland": 14624, "bare": 20463, "barbara": 2075, "absence": 6787, "ignored": 3298, "dawn": 22026, "injuries": 20184, "##port": 26459, "producers": 16617, "##ram": 9044, "82": 7203, "luis": 28845, "##ities": 26366, "kw": 25069, "admit": 20907, "expensive": 24743, "electricity": 18748, "nba": 10356, "exception": 25452, "symbol": 10321, "##ving": 7834, "ladies": 16130, "shower": 25067, "sheriff": 13892, "characteristics": 7102, "##je": 22638, "aimed": 10674, "button": 8817, "ratio": 26424, "effectively": 22030, "summit": 88, "angle": 15129, "jury": 5944, "bears": 11440, "foster": 25445, "vessels": 6334, "pants": 21790, "executed": 27719, "evans": 7464, "dozen": 11856, "advertising": 19274, "kicked": 28703, "patrol": 13421, "1889": 17235, "competitions": 8283, "lifetime": 1554, "principles": 12145, "athletics": 25638, "##logy": 8470, "birmingham": 14233, "sponsored": 17493, "89": 24575, "rob": 26649, "nomination": 30197, "1893": 29070, "acoustic": 14977, "##sm": 10053, "creature": 29664, "longest": 10186, "##tra": 18557, "credits": 5778, "harbor": 27493, "dust": 27685, "josh": 3418, "##so": 3811, "territories": 7405, "milk": 25124, "infrastructure": 26800, "completion": 16138, "thailand": 26717, "indians": 16698, "leon": 6004, "archbishop": 20018, "##sy": 25944, "assist": 11021, "pitch": 25264, "blake": 7879, "arrangement": 24092, "girlfriend": 18180, "serbian": 21196, "operational": 10060, "hence": 16704, "sad": 29091, "scent": 26500, "fur": 21230, "dj": 5356, "sessions": 4213, "hp": 5043, "refer": 21487, "rarely": 21401, "##ora": 7266, "exists": 27595, "1892": 22229, "##ten": 12218, "scientists": 3843, "dirty": 25082, "penalty": 17161, "burst": 6926, "portrait": 28355, "seed": 1529, "79": 1027, "pole": 3775, "limits": 8234, "rival": 11397, "1894": 15284, "stable": 21795, "alpha": 29059, "grave": 21252, "constitutional": 11100, "alcohol": 11580, "arrest": 5942, "flower": 1004, "mystery": 11972, "devil": 6923, "architectural": 27833, "relationships": 26620, "greatly": 2411, "habitat": 25540, "##istic": 17562, "larry": 3004, "progressive": 13118, "remote": 2684, "cotton": 2004, "##ics": 2010, "##ok": 12078, "preserved": 22622, "reaches": 518, "##ming": 10868, "cited": 25997, "86": 10432, "vast": 8468, "scholarship": 17559, "decisions": 18488, "cbs": 29925, "joy": 22063, "teach": 23247, "1885": 18342, "editions": 14866, "knocked": 25169, "eve": 21243, "searching": 10656, "partly": 22907, "participation": 15733, "gap": 8539, "animated": 7582, "fate": 2722, "excellent": 22198, "##ett": 218, "na": 13149, "87": 22406, "alternate": 13079, "saints": 20861, "youngest": 30008, "##ily": 3141, "climbed": 22541, "##ita": 9434, "##tors": 28772, "suggest": 23820, "##ct": 11723, "discussion": 3385, "staying": 21237, "choir": 19443, "lakes": 15064, "jacket": 19216, "revenue": 14138, "nevertheless": 9737, "peaked": 24389, "instrument": 20338, "wondering": 28048, "annually": 30400, "managing": 2297, "neil": 5279, "1891": 9021, "signing": 9709, "terry": 5102, "##ice": 2445, "apply": 10558, "clinical": 24182, "brooklyn": 20058, "aim": 13996, "catherine": 28623, "fuck": 16338, "farmers": 16363, "figured": 2944, "ninth": 22630, "pride": 8758, "hugh": 20806, "evolution": 20704, "ordinary": 1344, "involvement": 1867, "comfortable": 2401, "shouted": 28413, "tech": 12786, "encouraged": 21591, "taiwan": 6222, "representation": 9810, "sharing": 16066, "##lia": 23876, "##em": 23858, "panic": 3911, "exact": 11068, "cargo": 24918, "competing": 1882, "fat": 19932, "cried": 20629, "83": 8978, "1920s": 17369, "occasions": 9497, "pa": 18769, "cabin": 3903, "borders": 28869, "utah": 9989, "marcus": 24329, "##isation": 18548, "badly": 16326, "muscles": 15883, "##ance": 6841, "victorian": 29749, "transition": 10612, "warner": 23175, "bet": 15847, "permission": 20824, "##rin": 10203, "slave": 85, "terrible": 1373, "similarly": 264, "shares": 27488, "seth": 363, "uefa": 19784, "possession": 7868, "medals": 14511, "benefits": 14544, "colleges": 2030, "lowered": 23917, "perfectly": 1393, "mall": 30240, "transit": 16297, "##ye": 3779, "##kar": 17453, "publisher": 28770, "##ened": 11961, "harrison": 10448, "deaths": 9228, "elevation": 1524, "##ae": 7898, "asleep": 7466, "machines": 24852, "sigh": 18910, "ash": 23495, "hardly": 10524, "argument": 6414, "occasion": 7533, "parent": 16764, "leo": 26689, "decline": 9719, "1888": 4366, "contribution": 30449, "##ua": 13551, "concentration": 14508, "1000": 14466, "opportunities": 29720, "hispanic": 16050, "guardian": 17463, "extent": 5038, "emotions": 21905, "hips": 24932, "mason": 4866, "volumes": 28371, "bloody": 22596, "controversy": 24606, "diameter": 15326, "steady": 29164, "mistake": 17777, "phoenix": 21814, "identify": 17365, "violin": 24914, "##sk": 606, "departure": 23145, "richmond": 6739, "spin": 24191, "funeral": 7782, "enemies": 12720, "1864": 22358, "gear": 23309, "literally": 18636, "connor": 11713, "random": 27691, "sergeant": 7352, "grab": 7317, "confusion": 22621, "1865": 12295, "transmission": 21330, "informed": 664, "op": 27002, "leaning": 378, "sacred": 2484, "suspended": 22177, "thinks": 13409, "gates": 7682, "portland": 9088, "luck": 1093, "agencies": 17408, "yours": 17692, "hull": 5581, "expert": 18957, "muscle": 25631, "layer": 6181, "practical": 17153, "sculpture": 8222, "jerusalem": 16089, "latest": 30108, "lloyd": 11841, "statistics": 11023, "deeper": 24178, "recommended": 25781, "warrior": 11630, "arkansas": 29953, "mess": 13253, "supports": 8281, "greg": 25949, "eagle": 5307, "1880": 23068, "recovered": 27272, "rated": 21925, "concerts": 30283, "rushed": 19884, "##ano": 12149, "stops": 16421, "eggs": 8685, "files": 7484, "premiere": 3465, "keith": 23758, "##vo": 26189, "delhi": 21759, "turner": 5408, "pit": 20034, "affair": 15019, "belief": 12030, "paint": 5313, "##zing": 18882, "mate": 11281, "##ach": 27418, "##ev": 21887, "victim": 29289, "##ology": 18582, "withdrew": 9193, "bonus": 7350, "styles": 1632, "fled": 23290, "##ud": 6354, "glasgow": 16627, "technologies": 21771, "funded": 7798, "nbc": 126, "adaptation": 11328, "##ata": 25630, "portrayed": 26264, "cooperation": 1757, "supporters": 13782, "judges": 28773, "bernard": 24509, "justin": 12110, "hallway": 6550, "ralph": 3275, "##ick": 5592, "graduating": 3727, "controversial": 8744, "distant": 7375, "continental": 20498, "spider": 741, "bite": 680, "##ho": 21803, "recognize": 3124, "intention": 22327, "mixing": 15090, "##ese": 21472, "egyptian": 2404, "bow": 9972, "tourism": 2884, "suppose": 9194, "claiming": 14334, "tiger": 30094, "dominated": 28624, "participants": 6441, "vi": 13933, "##ru": 21062, "nurse": 27867, "partially": 29084, "tape": 14503, "##rum": 10240, "psychology": 30247, "##rn": 1723, "essential": 26796, "touring": 23645, "duo": 19772, "voting": 23350, "civilian": 2441, "emotional": 11911, "channels": 19317, "##king": 26925, "apparent": 3027, "hebrew": 25607, "1887": 21575, "tommy": 10673, "carrier": 4445, "intersection": 12653, "beast": 3990, "hudson": 3496, "##gar": 16305, "##zo": 28606, "lab": 24639, "nova": 17854, "bench": 18268, "discuss": 2424, "costa": 22896, "##ered": 693, "detailed": 2464, "behalf": 9249, "drivers": 25619, "unfortunately": 12060, "obtain": 12203, "##lis": 22321, "rocky": 13613, "##dae": 18203, "siege": 9158, "friendship": 11861, "honey": 30020, "##rian": 3758, "1861": 26408, "amy": 30423, "hang": 22396, "posted": 23946, "governments": 8985, "collins": 17918, "respond": 13027, "wildlife": 12867, "preferred": 7044, "operator": 4260, "##po": 4207, "laura": 30330, "pregnant": 13732, "videos": 27656, "dennis": 16942, "suspected": 20803, "boots": 23354, "instantly": 1439, "weird": 25152, "automatic": 23597, "businessman": 249, "alleged": 905, "placing": 1166, "throwing": 10964, "ph": 23982, "mood": 14586, "1862": 29136, "perry": 7753, "venue": 7612, "jet": 12539, "remainder": 7853, "##lli": 22750, "##ci": 29734, "passion": 24298, "biological": 28677, "boyfriend": 15720, "1863": 13687, "dirt": 15860, "buffalo": 7983, "ron": 7017, "segment": 25489, "fa": 23562, "abuse": 27983, "##era": 14561, "genre": 15823, "thrown": 20239, "stroke": 18512, "colored": 4263, "stress": 17274, "exercise": 15387, "displayed": 27555, "##gen": 14143, "struggled": 497, "##tti": 21840, "abroad": 11047, "dramatic": 22728, "wonderful": 24380, "thereafter": 11721, "madrid": 2379, "component": 26355, "widespread": 19586, "##sed": 6043, "tale": 13849, "citizen": 27233, "todd": 15007, "monday": 18637, "1886": 22784, "vancouver": 19294, "overseas": 2500, "forcing": 24972, "crying": 19392, "descent": 26362, "##ris": 19075, "discussed": 25128, "substantial": 1028, "ranks": 26499, "regime": 23305, "1870": 21528, "provinces": 23655, "switch": 5488, "drum": 24836, "zane": 26037, "ted": 17290, "tribes": 16086, "proof": 13294, "lp": 4829, "cream": 22478, "researchers": 11162, "volunteer": 13105, "manor": 6076, "silk": 11834, "milan": 26272, "donated": 28275, "allies": 11374, "venture": 25843, "principle": 4339, "delivery": 29530, "enterprise": 23872, "##ves": 24526, "##ans": 30292, "bars": 27896, "traditionally": 2968, "witch": 14905, "reminded": 15476, "copper": 8586, "##uk": 28156, "pete": 23975, "inter": 13661, "links": 6566, "colin": 16619, "grinned": 22980, "elsewhere": 12937, "competitive": 11761, "frequent": 19565, "##oy": 24033, "scream": 4770, "##hu": 19536, "tension": 15252, "texts": 28721, "submarine": 21071, "finnish": 15580, "defending": 1492, "defend": 23442, "pat": 17165, "detail": 4605, "1884": 19940, "affiliated": 15467, "stuart": 5667, "themes": 21121, "villa": 13524, "periods": 2241, "tool": 30015, "belgian": 29557, "ruling": 3916, "crimes": 22427, "answers": 15564, "folded": 15043, "licensed": 15358, "resort": 9449, "demolished": 10990, "hans": 25910, "lucy": 14414, "1881": 11413, "lion": 13073, "traded": 17203, "photographs": 1276, "writes": 28544, "craig": 9031, "##fa": 15250, "trials": 24484, "generated": 1797, "beth": 4962, "noble": 7731, "debt": 869, "percentage": 11589, "yorkshire": 25643, "erected": 29319, "ss": 10326, "viewed": 21561, "grades": 21616, "confidence": 8405, "ceased": 24619, "islam": 364, "telephone": 8524, "retail": 10665, "##ible": 14655, "chile": 16417, "m\u00b2": 19257, "roberts": 21419, "sixteen": 17187, "##ich": 21439, "commented": 18022, "hampshire": 18175, "innocent": 23051, "dual": 20294, "pounds": 22382, "checked": 5278, "regulations": 6472, "afghanistan": 17074, "sung": 15869, "rico": 17371, "liberty": 18746, "assets": 29976, "bigger": 9331, "options": 21993, "angels": 23839, "relegated": 19741, "tribute": 25633, "wells": 13518, "attending": 3962, "leaf": 13456, "##yan": 4330, "butler": 10833, "romanian": 28506, "forum": 141, "monthly": 27057, "lisa": 5519, "patterns": 16614, "gmina": 20291, "##tory": 14923, "madison": 18343, "hurricane": 19333, "rev": 17998, "##ians": 7739, "bristol": 16398, "##ula": 24195, "elite": 2861, "valuable": 26227, "disaster": 12274, "democracy": 26134, "awareness": 6712, "germans": 21033, "freyja": 24185, "##ins": 10946, "loop": 3866, "absolutely": 14788, "paying": 8457, "populations": 6731, "maine": 25260, "sole": 27235, "prayer": 5081, "spencer": 17267, "releases": 22619, "doorway": 15782, "bull": 23525, "##ani": 5228, "lover": 5575, "midnight": 21210, "conclusion": 29584, "##sson": 2429, "thirteen": 3952, "lily": 10319, "mediterranean": 12403, "##lt": 2557, "nhl": 24481, "proud": 3444, "sample": 20929, "##hill": 23138, "drummer": 29045, "guinea": 28850, "##ova": 27154, "murphy": 16795, "climb": 3310, "##ston": 5116, "instant": 5930, "attributed": 222, "horn": 24958, "ain": 8747, "railways": 20866, "steven": 9778, "##ao": 8930, "autumn": 25589, "ferry": 17611, "opponent": 17200, "root": 13429, "traveling": 20834, "secured": 9372, "corridor": 5406, "stretched": 29221, "tales": 4179, "sheet": 11898, "trinity": 1924, "cattle": 29280, "helps": 5255, "indicates": 7941, "manhattan": 1361, "murdered": 15944, "fitted": 14394, "1882": 23627, "gentle": 24151, "grandmother": 5971, "mines": 28428, "shocked": 7948, "vegas": 4814, "produces": 18140, "##light": 15424, "caribbean": 10289, "##ou": 25502, "belong": 16224, "continuous": 10311, "desperate": 17987, "drunk": 25709, "historically": 1864, "trio": 14376, "waved": 10843, "raf": 20550, "dealing": 21377, "nathan": 15453, "bat": 20160, "murmured": 20760, "interrupted": 8737, "residing": 7372, "scientist": 98, "pioneer": 12888, "harold": 23028, "aaron": 4780, "##net": 7601, "delta": 23000, "attempting": 10314, "minority": 5522, "mini": 20773, "believes": 28998, "chorus": 10333, "tend": 19632, "lots": 23066, "eyed": 23078, "indoor": 12169, "load": 27837, "shots": 4681, "updated": 26993, "jail": 6505, "##llo": 14542, "concerning": 28160, "connecting": 28996, "wealth": 5950, "##ved": 30487, "slaves": 5920, "arrive": 3089, "rangers": 20331, "sufficient": 5480, "rebuilt": 15291, "##wick": 29491, "cardinal": 27793, "flood": 14525, "muhammad": 16080, "whenever": 19146, "relation": 4972, "runners": 6910, "moral": 7799, "repair": 18157, "viewers": 6054, "arriving": 23249, "revenge": 15667, "punk": 7657, "assisted": 28124, "bath": 16036, "fairly": 24926, "breathe": 16903, "lists": 23426, "innings": 10671, "illustrated": 28459, "whisper": 26249, "nearest": 25539, "voters": 7905, "clinton": 23190, "ties": 29432, "ultimate": 14896, "screamed": 10867, "beijing": 24012, "lions": 577, "andre": 25382, "fictional": 1555, "gathering": 5014, "comfort": 6229, "radar": 2407, "suitable": 6404, "dismissed": 12996, "hms": 18768, "ban": 16243, "pine": 22813, "wrist": 5207, "atmosphere": 21092, "voivodeship": 25103, "bid": 27395, "timber": 23204, "##ned": 24528, "##nan": 746, "giants": 6531, "##ane": 10230, "cameron": 24106, "recovery": 21621, "uss": 26927, "identical": 9033, "categories": 28627, "switched": 5936, "serbia": 16818, "laughter": 30208, "noah": 19120, "ensemble": 28713, "therapy": 19073, "peoples": 21878, "touching": 29343, "##off": 26738, "locally": 4470, "pearl": 13901, "platforms": 6686, "everywhere": 2634, "ballet": 562, "tables": 11966, "lanka": 11201, "herbert": 19441, "outdoor": 4241, "toured": 19841, "derek": 15392, "1883": 29898, "spaces": 15006, "contested": 24653, "swept": 5755, "1878": 17577, "exclusive": 11080, "slight": 24875, "connections": 20558, "##dra": 14313, "winds": 18881, "prisoner": 8364, "collective": 24632, "bangladesh": 5458, "tube": 24169, "publicly": 18393, "wealthy": 4768, "thai": 30416, "##ys": 21132, "isolated": 27215, "select": 29274, "##ric": 2577, "insisted": 1021, "pen": 10745, "fortune": 737, "ticket": 20860, "spotted": 28445, "reportedly": 22544, "animation": 25845, "enforcement": 2882, "tanks": 15876, "110": 16919, "decides": 9694, "wider": 24253, "lowest": 19952, "owen": 29202, "##time": 6826, "nod": 17103, "hitting": 10131, "##hn": 20059, "gregory": 10402, "furthermore": 9326, "magazines": 18073, "fighters": 20289, "solutions": 4096, "##ery": 25532, "pointing": 6091, "requested": 23830, "peru": 29761, "reed": 1239, "chancellor": 29874, "knights": 533, "mask": 25528, "worker": 27152, "eldest": 5226, "flames": 9212, "reduction": 30271, "1860": 668, "volunteers": 8317, "##tis": 18970, "reporting": 2877, "##hl": 27473, "wire": 4559, "advisory": 29098, "endemic": 958, "origins": 12425, "settlers": 7474, "pursue": 15911, "knock": 11675, "consumer": 25976, "1876": 12245, "eu": 27894, "compound": 19306, "creatures": 14704, "mansion": 16189, "sentenced": 11681, "ivan": 13463, "deployed": 11503, "guitars": 19180, "frowned": 20306, "involves": 6144, "mechanism": 15897, "kilometers": 7810, "perspective": 28649, "shops": 27907, "maps": 20116, "terminus": 27594, "duncan": 26010, "alien": 27247, "fist": 21220, "bridges": 23288, "##pers": 798, "heroes": 18075, "fed": 25270, "derby": 24647, "swallowed": 907, "##ros": 5507, "patent": 752, "sara": 9910, "illness": 18716, "characterized": 20758, "adventures": 9550, "slide": 18795, "hawaii": 6589, "jurisdiction": 15039, "##op": 16504, "organised": 2320, "##side": 8592, "adelaide": 1452, "walks": 21492, "biology": 10987, "se": 13258, "##ties": 13194, "rogers": 18951, "swing": 13592, "tightly": 3177, "boundaries": 8174, "##rie": 22835, "prepare": 24823, "implementation": 10064, "stolen": 16151, "##sha": 5218, "certified": 14177, "colombia": 7497, "edwards": 16346, "garage": 18946, "##mm": 12353, "recalled": 14360, "##ball": 21718, "rage": 21678, "harm": 10999, "nigeria": 29692, "breast": 1607, "##ren": 10113, "furniture": 15802, "pupils": 4898, "settle": 12994, "##lus": 23746, "cuba": 4419, "balls": 30469, "client": 14579, "alaska": 16527, "21st": 2680, "linear": 18077, "thrust": 1037, "celebration": 4295, "latino": 27529, "genetic": 16234, "terror": 25736, "##cia": 11172, "##ening": 8404, "lightning": 1685, "fee": 14901, "witness": 19136, "lodge": 19303, "establishing": 11383, "skull": 25470, "##ique": 25262, "earning": 30478, "hood": 17592, "##ei": 10917, "rebellion": 27459, "wang": 17758, "sporting": 23453, "warned": 3424, "missile": 11385, "devoted": 10582, "activist": 25007, "porch": 138, "worship": 16353, "fourteen": 21513, "package": 21762, "1871": 19687, "decorated": 758, "##shire": 21915, "housed": 22918, "##ock": 29303, "chess": 3116, "sailed": 25867, "doctors": 17890, "oscar": 26329, "joan": 24897, "treat": 13483, "garcia": 22154, "harbour": 3125, "jeremy": 15968, "##ire": 1993, "traditions": 7919, "dominant": 13203, "jacques": 23770, "##gon": 11178, "##wan": 9774, "relocated": 18256, "1879": 13112, "amendment": 8210, "sized": 22551, "companion": 14992, "simultaneously": 19233, "volleyball": 2908, "spun": 2204, "acre": 29242, "increases": 28865, "stopping": 3884, "loves": 17279, "belongs": 3833, "affect": 14804, "drafted": 26312, "tossed": 24291, "scout": 14836, "battles": 17361, "1875": 16245, "filming": 16602, "shoved": 18653, "munich": 3061, "tenure": 26809, "vertical": 13494, "romance": 16099, "pc": 2063, "##cher": 11598, "argue": 16018, "##ical": 8277, "craft": 17403, "ranging": 4693, "www": 2537, "opens": 9854, "honest": 10050, "tyler": 3860, "yesterday": 5306, "virtual": 26611, "##let": 13605, "muslims": 9590, "reveal": 28695, "snake": 8455, "immigrants": 15205, "radical": 21786, "screaming": 5989, "speakers": 29790, "firing": 25060, "saving": 21574, "belonging": 18554, "ease": 8953, "lighting": 10370, "prefecture": 22186, "blame": 9460, "farmer": 20548, "hungry": 3950, "grows": 8778, "rubbed": 3287, "beam": 6485, "sur": 21011, "subsidiary": 26313, "##cha": 27528, "armenian": 2511, "sao": 14079, "dropping": 11668, "conventional": 5472, "##fer": 25409, "microsoft": 9767, "reply": 10207, "qualify": 15539, "spots": 20324, "1867": 6128, "sweat": 17767, "festivals": 29243, "##ken": 18955, "immigration": 23242, "physician": 28937, "discover": 8555, "exposure": 24421, "sandy": 3501, "explanation": 27550, "isaac": 6868, "implemented": 5117, "##fish": 18659, "hart": 30044, "initiated": 9311, "connect": 12195, "stakes": 21263, "presents": 4712, "heights": 12175, "householder": 10619, "pleased": 19471, "tourist": 21014, "regardless": 18248, "slip": 25800, "closest": 7673, "##ction": 5339, "surely": 20616, "sultan": 27646, "brings": 29456, "riley": 29765, "preparation": 8077, "aboard": 26410, "slammed": 7308, "baptist": 2118, "experiment": 6377, "ongoing": 3070, "interstate": 23776, "organic": 11124, "playoffs": 17807, "##ika": 9513, "1877": 22818, "130": 1718, "##tar": 11113, "hindu": 1121, "error": 502, "tours": 21793, "tier": 17441, "plenty": 15093, "arrangements": 15242, "talks": 2067, "trapped": 27125, "excited": 25184, "sank": 25493, "ho": 20869, "athens": 27358, "1872": 27497, "denver": 23734, "welfare": 11882, "suburb": 2386, "athletes": 14573, "trick": 3676, "diverse": 23394, "belly": 12108, "exclusively": 1889, "yelled": 2480, "1868": 325, "##med": 16536, "conversion": 28620, "##ette": 2023, "1874": 15555, "internationally": 5106, "computers": 8908, "conductor": 6237, "abilities": 7864, "sensitive": 14117, "hello": 8616, "dispute": 30516, "measured": 4, "globe": 9117, "rocket": 19590, "prices": 24881, "amsterdam": 17325, "flights": 25927, "tigers": 11644, "inn": 30021, "municipalities": 19822, "emotion": 21857, "references": 18939, "3d": 26159, "##mus": 22778, "explains": 7500, "airlines": 28643, "manufactured": 10111, "pm": 17797, "archaeological": 11638, "1873": 8459, "interpretation": 5715, "devon": 30291, "comment": 5312, "##ites": 12603, "settlements": 27755, "kissing": 14972, "absolute": 6184, "improvement": 4458, "suite": 5607, "impressed": 1778, "barcelona": 14480, "sullivan": 23868, "jefferson": 6523, "towers": 28439, "jesse": 20881, "julie": 20420, "##tin": 14243, "##lu": 7611, "grandson": 26701, "hi": 9532, "gauge": 8582, "regard": 5486, "rings": 8294, "interviews": 406, "trace": 22756, "raymond": 10313, "thumb": 15381, "departments": 26694, "burns": 20382, "serial": 26906, "bulgarian": 12102, "scores": 3008, "demonstrated": 20363, "##ix": 7910, "1866": 4789, "kyle": 7814, "alberta": 5315, "underneath": 8384, "romanized": 12813, "##ward": 24307, "relieved": 23920, "acquisition": 2611, "phrase": 20698, "cliff": 855, "reveals": 11112, "han": 15887, "cuts": 286, "merger": 25505, "custom": 18137, "##dar": 21469, "nee": 5319, "gilbert": 27821, "graduation": 15806, "##nts": 978, "assessment": 8130, "cafe": 19813, "difficulty": 19887, "demands": 2107, "swung": 12412, "democrat": 15769, "jennifer": 15991, "commons": 5732, "1940s": 26741, "grove": 17285, "##yo": 13187, "completing": 507, "focuses": 15942, "sum": 21288, "substitute": 8900, "bearing": 14037, "stretch": 13190, "reception": 14130, "##py": 22111, "reflected": 3960, "essentially": 27523, "destination": 29724, "pairs": 3192, "##ched": 2438, "survival": 29756, "resource": 10583, "##bach": 25861, "promoting": 1359, "doubles": 628, "messages": 27580, "tear": 4144, "##down": 15673, "##fully": 11813, "parade": 7855, "florence": 2662, "harvey": 7895, "incumbent": 23034, "partial": 24535, "framework": 15825, "900": 8075, "pedro": 28639, "frozen": 16977, "procedure": 2518, "olivia": 4287, "controls": 19354, "##mic": 12019, "shelter": 24364, "personally": 19838, "temperatures": 28753, "##od": 1703, "brisbane": 27662, "tested": 8782, "sits": 20225, "marble": 10765, "comprehensive": 15332, "oxygen": 17622, "leonard": 1145, "##kov": 11542, "inaugural": 23763, "iranian": 7298, "referring": 20617, "quarters": 21311, "attitude": 4273, "##ivity": 12301, "mainstream": 8642, "lined": 15377, "mars": 11875, "dakota": 16447, "norfolk": 5909, "unsuccessful": 2360, "##\u00b0": 23577, "explosion": 28816, "helicopter": 13787, "congressional": 30467, "##sing": 6272, "inspector": 7669, "bitch": 28414, "seal": 2629, "departed": 19861, "divine": 25075, "##ters": 11177, "coaching": 13589, "examination": 22642, "punishment": 7325, "manufacturer": 24301, "sink": 27601, "columns": 29485, "unincorporated": 7730, "signals": 6986, "nevada": 6335, "squeezed": 17574, "dylan": 13800, "dining": 20557, "photos": 29513, "martial": 9452, "manuel": 14012, "eighteen": 10444, "elevator": 7826, "brushed": 19013, "plates": 11858, "ministers": 29771, "ivy": 14299, "congregation": 30267, "##len": 1395, "slept": 6904, "specialized": 26794, "taxes": 11900, "curve": 15469, "restricted": 9617, "negotiations": 17015, "likes": 23751, "statistical": 21837, "arnold": 9191, "inspiration": 22736, "execution": 22514, "bold": 12368, "intermediate": 27422, "significance": 7623, "margin": 10372, "ruler": 8846, "wheels": 11736, "gothic": 8542, "intellectual": 6379, "dependent": 16923, "listened": 2848, "eligible": 8177, "buses": 22207, "widow": 21711, "syria": 8717, "earn": 28542, "cincinnati": 20204, "collapsed": 22257, "recipient": 1078, "secrets": 16996, "accessible": 291, "philippine": 12606, "maritime": 7551, "goddess": 2589, "clerk": 891, "surrender": 1365, "breaks": 19893, "playoff": 20248, "database": 15689, "##ified": 198, "##lon": 14235, "ideal": 14978, "beetle": 5411, "aspect": 10440, "soap": 11307, "regulation": 30065, "strings": 22255, "expand": 25485, "anglo": 6110, "shorter": 10536, "crosses": 3749, "retreat": 2923, "tough": 3110, "coins": 379, "wallace": 5910, "directions": 23193, "pressing": 6618, "##oon": 13211, "shipping": 13516, "locomotives": 15239, "comparison": 7667, "topics": 13927, "nephew": 1108, "##mes": 10908, "distinction": 27066, "honors": 25486, "travelled": 5889, "sierra": 20642, "ibn": 23159, "##over": 16695, "fortress": 23593, "sa": 13963, "recognised": 22512, "carved": 17120, "1869": 27407, "clients": 17037, "##dan": 10159, "intent": 29207, "##mar": 29358, "coaches": 17864, "describing": 24766, "bread": 25930, "##ington": 16174, "beaten": 28633, "northwestern": 19620, "##ona": 1813, "merit": 10485, "youtube": 18757, "collapse": 26346, "challenges": 6479, "em": 10342, "historians": 29758, "objective": 11748, "submitted": 20478, "virus": 15607, "attacking": 11559, "drake": 27888, "assume": 13749, "##ere": 24228, "diseases": 7425, "marc": 6070, "stem": 1590, "leeds": 3625, "##cus": 11746, "##ab": 12946, "farming": 14458, "glasses": 605, "##lock": 8161, "visits": 25235, "nowhere": 23095, "fellowship": 9413, "relevant": 15060, "carries": 19122, "restaurants": 27416, "experiments": 27783, "101": 8068, "constantly": 9916, "bases": 18535, "targets": 20737, "shah": 29526, "tenth": 26005, "opponents": 25481, "verse": 27789, "territorial": 28893, "##ira": 21864, "writings": 28020, "corruption": 13593, "##hs": 6475, "instruction": 7851, "inherited": 19467, "reverse": 959, "emphasis": 14246, "##vic": 5416, "employee": 2808, "arch": 18448, "keeps": 5376, "rabbi": 12135, "watson": 19718, "payment": 10569, "uh": 24796, "##ala": 4282, "nancy": 8814, "##tre": 16272, "venice": 23852, "fastest": 13222, "sexy": 1480, "banned": 11924, "adrian": 9669, "properly": 18529, "ruth": 4738, "touchdown": 11492, "dollar": 29657, "boards": 29159, "metre": 10538, "circles": 8602, "edges": 4140, "favour": 9613, "comments": 15065, "ok": 1425, "travels": 20141, "liberation": 29544, "scattered": 10039, "firmly": 21274, "##ular": 6945, "holland": 29938, "permitted": 8438, "diesel": 7204, "kenya": 12585, "den": 2494, "originated": 17674, "##ral": 26839, "demons": 17596, "resumed": 6572, "dragged": 2633, "rider": 20980, "##rus": 17097, "servant": 12678, "blinked": 552, "extend": 10579, "torn": 6448, "##ias": 28629, "##sey": 18745, "input": 6528, "meal": 19935, "everybody": 17182, "cylinder": 20144, "kinds": 13700, "camps": 26584, "##fe": 11515, "bullet": 29520, "logic": 27257, "##wn": 8983, "croatian": 28541, "evolved": 18377, "healthy": 20238, "fool": 22579, "chocolate": 689, "wise": 22838, "preserve": 4042, "pradesh": 26765, "##ess": 13684, "respective": 14279, "1850": 8191, "##ew": 26823, "chicken": 26006, "artificial": 26186, "gross": 6515, "corresponding": 27861, "convicted": 12016, "cage": 25846, "caroline": 28707, "dialogue": 15558, "##dor": 12953, "narrative": 18776, "stranger": 22110, "mario": 4607, "br": 4346, "christianity": 2659, "failing": 10267, "trent": 4724, "commanding": 25760, "buddhist": 2448, "1848": 30190, "maurice": 27071, "focusing": 20416, "yale": 20447, "bike": 12105, "altitude": 8484, "##ering": 22442, "mouse": 5822, "revised": 16026, "##sley": 17504, "veteran": 28276, "##ig": 21399, "pulls": 21160, "theology": 3959, "crashed": 18904, "campaigns": 12798, "legion": 17043, "##ability": 8242, "drag": 13202, "excellence": 9447, "customer": 28833, "cancelled": 29440, "intensity": 1500, "excuse": 6918, "##lar": 16972, "liga": 12733, "participating": 19497, "contributing": 7807, "printing": 22873, "##burn": 9316, "variable": 1165, "##rk": 1428, "curious": 13486, "bin": 21941, "legacy": 27263, "renaissance": 13375, "##my": 16425, "symptoms": 17910, "binding": 5147, "vocalist": 4143, "dancer": 6243, "##nie": 28729, "grammar": 25862, "gospel": 4009, "democrats": 9502, "ya": 171, "enters": 11123, "sc": 20578, "diplomatic": 11053, "hitler": 20440, "##ser": 28187, "clouds": 1689, "mathematical": 22471, "quit": 2552, "defended": 18027, "oriented": 6775, "##heim": 25959, "fundamental": 2529, "hardware": 3458, "impressive": 18253, "equally": 20802, "convince": 6913, "confederate": 11339, "guilt": 22515, "chuck": 5516, "sliding": 11530, "##ware": 11077, "magnetic": 21179, "narrowed": 7960, "petersburg": 8802, "bulgaria": 15202, "otto": 11257, "phd": 29478, "skill": 6108, "##ama": 13750, "reader": 22400, "hopes": 25005, "pitcher": 18812, "reservoir": 27752, "hearts": 22612, "automatically": 9063, "expecting": 26394, "mysterious": 7819, "bennett": 20724, "extensively": 25962, "imagined": 20720, "seeds": 22130, "monitor": 9388, "fix": 10010, "##ative": 21101, "journalism": 15920, "struggling": 13447, "signature": 7627, "ranch": 8430, "encounter": 24210, "photographer": 3040, "observation": 7822, "protests": 8621, "##pin": 17448, "influences": 28527, "##hr": 972, "calendar": 21677, "##all": 8579, "cruz": 13873, "croatia": 22790, "locomotive": 11425, "hughes": 19989, "naturally": 7668, "shakespeare": 22926, "basement": 12618, "hook": 16792, "uncredited": 10116, "faded": 7912, "theories": 700, "approaches": 17694, "dare": 26401, "phillips": 355, "filling": 17534, "fury": 23213, "obama": 25942, "##ain": 26245, "efficient": 20619, "arc": 5792, "deliver": 5645, "min": 17786, "raid": 7089, "breeding": 10523, "inducted": 6821, "leagues": 8686, "efficiency": 12379, "axis": 3050, "montana": 11789, "eagles": 28536, "##ked": 18658, "supplied": 17289, "instructions": 1731, "karen": 4406, "picking": 22378, "indicating": 15741, "trap": 25555, "anchor": 24629, "practically": 27826, "christians": 10071, "tomb": 12670, "vary": 24236, "occasional": 20413, "electronics": 15695, "lords": 22056, "readers": 8633, "newcastle": 26475, "faint": 27213, "innovation": 19661, "collect": 21364, "situations": 25681, "engagement": 696, "160": 5750, "claude": 7211, "mixture": 12896, "##feld": 11709, "peer": 18324, "tissue": 19414, "logo": 25072, "lean": 18399, "##ration": 4669, "\u00b0f": 12392, "floors": 29258, "##ven": 24609, "architects": 15038, "reducing": 14041, "##our": 6723, "##ments": 25802, "rope": 3181, "1859": 436, "ottawa": 19406, "##har": 5833, "samples": 6982, "banking": 1079, "declaration": 15757, "proteins": 12630, "resignation": 27068, "francois": 2296, "saudi": 7681, "advocate": 28243, "exhibited": 17886, "armor": 15139, "twins": 26965, "divorce": 19068, "##ras": 12931, "abraham": 2885, "reviewed": 14048, "jo": 29752, "temporarily": 23559, "matrix": 10291, "physically": 8865, "pulse": 4348, "curled": 9118, "##ena": 28509, "difficulties": 20685, "bengal": 6897, "usage": 23787, "##ban": 18221, "annie": 16456, "riders": 14438, "certificate": 28889, "##pi": 1987, "holes": 15547, "warsaw": 2451, "distinctive": 26961, "jessica": 3763, "##mon": 30476, "mutual": 8299, "1857": 14015, "customs": 6274, "circular": 18184, "eugene": 23642, "removal": 16714, "loaded": 18774, "mere": 20443, "vulnerable": 6209, "depicted": 4344, "generations": 22895, "dame": 24818, "heir": 29799, "enormous": 20325, "lightly": 23307, "climbing": 7198, "pitched": 8374, "lessons": 635, "pilots": 25775, "nepal": 9162, "ram": 6970, "google": 18982, "preparing": 4183, "brad": 25476, "louise": 23966, "renowned": 18936, "##\u2082": 5976, "liam": 13434, "##ably": 15213, "plaza": 24890, "shaw": 3854, "sophie": 8474, "brilliant": 14145, "bills": 1069, "##bar": 23390, "##nik": 15110, "fucking": 21876, "mainland": 28030, "server": 15210, "pleasant": 14851, "seized": 15629, "veterans": 14773, "jerked": 18820, "fail": 30142, "beta": 14152, "brush": 12663, "radiation": 580, "stored": 4530, "warmth": 5432, "southeastern": 8531, "nate": 4926, "sin": 22453, "raced": 16153, "berkeley": 28157, "joke": 14346, "athlete": 6121, "designation": 28138, "trunk": 10268, "##low": 21353, "roland": 17896, "qualification": 25691, "archives": 15751, "heels": 30328, "artwork": 384, "receives": 9032, "judicial": 10150, "reserves": 24757, "##bed": 5714, "woke": 29403, "installation": 22967, "abu": 24400, "floating": 17197, "fake": 25304, "lesser": 5259, "excitement": 2085, "interface": 21903, "concentrated": 12192, "addressed": 3601, "characteristic": 7537, "amanda": 15906, "saxophone": 23001, "monk": 25250, "auto": 10722, "##bus": 15634, "releasing": 6026, "egg": 9383, "dies": 10182, "interaction": 12095, "defender": 3062, "ce": 18770, "outbreak": 5784, "glory": 12529, "loving": 16826, "##bert": 30259, "sequel": 24355, "consciousness": 1488, "http": 21177, "awake": 7950, "ski": 3973, "enrolled": 27107, "##ress": 19128, "handling": 21049, "rookie": 30037, "brow": 2777, "somebody": 15455, "biography": 4160, "warfare": 29769, "amounts": 22138, "contracts": 10663, "presentation": 16211, "fabric": 1253, "dissolved": 10174, "challenged": 18696, "meter": 17812, "psychological": 2575, "lt": 18902, "elevated": 21517, "rally": 11700, "accurate": 24507, "##tha": 7022, "hospitals": 18564, "undergraduate": 27704, "specialist": 14740, "venezuela": 11274, "exhibit": 24209, "shed": 1287, "nursing": 4000, "protestant": 16828, "fluid": 15726, "structural": 18207, "footage": 14840, "jared": 18846, "consistent": 21307, "prey": 20039, "##ska": 11838, "succession": 8703, "reflect": 8328, "exile": 7618, "lebanon": 22688, "wiped": 19157, "suspect": 17300, "shanghai": 18977, "resting": 21279, "integration": 12497, "preservation": 1187, "marvel": 8823, "variant": 6163, "pirates": 29375, "sheep": 10503, "rounded": 14024, "capita": 6620, "sailing": 24047, "colonies": 2406, "manuscript": 20960, "deemed": 20841, "variations": 8973, "clarke": 29638, "functional": 356, "emerging": 9002, "boxing": 17379, "relaxed": 18772, "curse": 15697, "azerbaijan": 16072, "heavyweight": 26890, "nickname": 7074, "editorial": 17028, "rang": 7276, "grid": 12905, "tightened": 21505, "earthquake": 13050, "flashed": 12391, "miguel": 16230, "rushing": 10718, "##ches": 2603, "improvements": 28689, "boxes": 14614, "brooks": 25078, "180": 14588, "consumption": 17035, "molecular": 3280, "felix": 16016, "societies": 20714, "repeatedly": 8021, "variation": 3746, "aids": 30372, "civic": 18285, "graphics": 27333, "professionals": 3255, "realm": 16989, "autonomous": 26443, "receiver": 6735, "delayed": 11132, "workshop": 588, "militia": 28299, "chairs": 19603, "trump": 25547, "canyon": 23783, "##point": 23937, "harsh": 24104, "extending": 16668, "lovely": 3324, "happiness": 24445, "##jan": 12498, "stake": 1831, "eyebrows": 23788, "embassy": 7448, "wellington": 22867, "hannah": 9304, "##ella": 25946, "sony": 4320, "corners": 20726, "bishops": 19860, "swear": 14898, "cloth": 20565, "contents": 5130, "xi": 11846, "namely": 27701, "commenced": 18498, "1854": 3286, "stanford": 1190, "nashville": 3984, "courage": 17204, "graphic": 29083, "commitment": 2755, "garrison": 5247, "##bin": 24058, "hamlet": 11617, "clearing": 27927, "rebels": 23517, "attraction": 3219, "literacy": 1386, "cooking": 16420, "ruins": 8108, "temples": 1849, "jenny": 13382, "humanity": 20886, "celebrate": 8070, "hasn": 18797, "freight": 3007, "sixty": 3629, "rebel": 11327, "bastard": 13089, "##art": 14131, "newton": 22085, "##ada": 20103, "deer": 166, "##ges": 25752, "##ching": 26802, "smiles": 11690, "delaware": 24069, "singers": 23656, "##ets": 27041, "approaching": 10736, "assists": 20544, "flame": 29340, "##ph": 6956, "boulevard": 29060, "barrel": 11600, "planted": 961, "##ome": 18840, "pursuit": 8284, "##sia": 5724, "consequences": 919, "posts": 19951, "shallow": 25425, "invitation": 3563, "rode": 10074, "depot": 16263, "ernest": 25342, "kane": 8339, "rod": 2226, "concepts": 6129, "preston": 22430, "topic": 4736, "chambers": 16572, "striking": 5743, "blast": 28207, "arrives": 9638, "descendants": 13677, "montgomery": 17552, "ranges": 1770, "worlds": 26616, "##lay": 22183, "##ari": 21370, "span": 19725, "chaos": 5602, "praise": 6390, "##ag": 17140, "fewer": 4219, "1855": 14033, "sanctuary": 29840, "mud": 24596, "fbi": 3753, "##ions": 15120, "programmes": 15828, "maintaining": 18078, "unity": 22126, "harper": 15224, "bore": 25268, "handsome": 2689, "closure": 14384, "tournaments": 7933, "thunder": 12724, "nebraska": 4632, "linda": 20747, "facade": 337, "puts": 15859, "satisfied": 16302, "argentine": 4989, "dale": 8646, "cork": 15240, "dome": 15661, "panama": 1752, "##yl": 11641, "1858": 11185, "tasks": 25047, "experts": 12832, "##ates": 15672, "feeding": 9605, "equation": 7277, "##las": 15078, "##ida": 16022, "##tu": 12900, "engage": 5858, "bryan": 20624, "##ax": 3796, "um": 20787, "quartet": 13767, "melody": 25763, "disbanded": 7769, "sheffield": 14040, "blocked": 24824, "gasped": 11066, "delay": 27049, "kisses": 29649, "maggie": 27445, "connects": 11254, "##non": 17966, "sts": 10209, "poured": 14745, "creator": 24613, "publishers": 27596, "##we": 25281, "guided": 11786, "ellis": 5762, "extinct": 29571, "hug": 5825, "gaining": 22405, "##ord": 29437, "complicated": 24603, "##bility": 22202, "poll": 20352, "clenched": 27034, "investigate": 19663, "##use": 21029, "thereby": 26669, "quantum": 5550, "spine": 991, "cdp": 25991, "humor": 28485, "kills": 11334, "administered": 23113, "semifinals": 16106, "##du": 12976, "encountered": 26507, "ignore": 14331, "##bu": 11915, "commentary": 25815, "##maker": 20527, "bother": 19164, "roosevelt": 23259, "140": 11520, "plains": 14060, "halfway": 27018, "flowing": 10302, "cultures": 9928, "crack": 10809, "imprisoned": 10598, "neighboring": 8099, "airline": 16850, "##ses": 11475, "##view": 29579, "##mate": 16543, "##ec": 23904, "gather": 17261, "wolves": 14442, "marathon": 24744, "transformed": 25497, "##ill": 229, "cruise": 10286, "organisations": 8739, "carol": 30280, "punch": 7358, "exhibitions": 6877, "numbered": 5199, "alarm": 5723, "ratings": 10921, "daddy": 21389, "silently": 11800, "##stein": 27955, "queens": 4147, "colours": 4190, "impression": 3107, "guidance": 21040, "liu": 17490, "tactical": 16313, "##rat": 24928, "marshal": 16507, "della": 3000, "arrow": 17315, "##ings": 15353, "rested": 3147, "feared": 10109, "tender": 9654, "owns": 16773, "bitter": 19558, "advisor": 9266, "escort": 9996, "##ides": 4019, "spare": 22884, "farms": 5018, "grants": 28733, "##ene": 28123, "dragons": 7557, "encourage": 3396, "colleagues": 6586, "cameras": 18606, "##und": 26060, "sucked": 4754, "pile": 30114, "spirits": 6021, "prague": 10115, "statements": 5491, "suspension": 29058, "landmark": 7876, "fence": 4357, "torture": 17215, "recreation": 21495, "bags": 9705, "permanently": 24423, "survivors": 5691, "pond": 15494, "spy": 8675, "predecessor": 27472, "bombing": 9531, "coup": 6941, "##og": 24440, "protecting": 30299, "transformation": 14216, "glow": 5476, "##lands": 18258, "##book": 8762, "dug": 11033, "priests": 9725, "andrea": 30041, "feat": 13573, "barn": 532, "jumping": 11240, "##chen": 8679, "##ologist": 17491, "##con": 8382, "casualties": 16727, "stern": 735, "auckland": 19808, "pipe": 4673, "serie": 14741, "revealing": 10960, "ba": 5797, "##bel": 22308, "trevor": 19627, "mercy": 19812, "spectrum": 20425, "yang": 16312, "consist": 13768, "governing": 11742, "collaborated": 10097, "possessed": 24738, "epic": 23949, "comprises": 5905, "blew": 2427, "shane": 12969, "##ack": 14667, "lopez": 506, "honored": 23221, "magical": 8372, "sacrifice": 6658, "judgment": 22547, "perceived": 17287, "hammer": 9528, "mtv": 15851, "baronet": 22206, "tune": 11316, "das": 22686, "missionary": 19517, "sheets": 7355, "350": 4588, "neutral": 26289, "oral": 27722, "threatening": 13945, "attractive": 2764, "shade": 8609, "aims": 783, "seminary": 4548, "##master": 21, "estates": 3503, "1856": 20875, "michel": 14943, "wounds": 21813, "refugees": 5748, "manufacturers": 349, "##nic": 9345, "mercury": 2344, "syndrome": 2371, "porter": 26636, "##iya": 18244, "##din": 18315, "hamburg": 18695, "identification": 15907, "upstairs": 23017, "purse": 6843, "widened": 22227, "pause": 7244, "cared": 5119, "breathed": 28347, "affiliate": 20630, "santiago": 301, "prevented": 7635, "celtic": 17245, "fisher": 4460, "125": 19548, "recruited": 1042, "byzantine": 21287, "reconstruction": 20462, "farther": 6281, "##mp": 18836, "diet": 9284, "sake": 25046, "au": 1552, "spite": 16555, "sensation": 16702, "##ert": 30084, "blank": 22201, "separation": 26178, "105": 2542, "##hon": 14686, "vladimir": 24759, "armies": 22774, "anime": 23834, "##lie": 17749, "accommodate": 19995, "orbit": 4439, "cult": 16289, "sofia": 1854, "archive": 4275, "##ify": 25085, "##box": 28402, "founders": 3826, "sustained": 15833, "disorder": 5557, "honours": 24660, "northeastern": 24591, "mia": 23451, "crops": 22614, "violet": 1442, "threats": 11876, "blanket": 28965, "fires": 15445, "canton": 2971, "followers": 17006, "southwestern": 28711, "prototype": 9198, "voyage": 12869, "assignment": 28631, "altered": 3201, "moderate": 26847, "protocol": 25026, "pistol": 699, "##eo": 1000, "questioned": 30515, "brass": 17270, "lifting": 22903, "1852": 29715, "math": 5860, "authored": 18458, "##ual": 20013, "doug": 7437, "dimensional": 29846, "dynamic": 24779, "##san": 1457, "1851": 29517, "pronounced": 9440, "grateful": 14611, "quest": 20940, "uncomfortable": 3208, "boom": 26573, "presidency": 17425, "stevens": 21966, "relating": 27491, "politicians": 5246, "chen": 5355, "barrier": 19754, "quinn": 13286, "diana": 2815, "mosque": 4224, "tribal": 21518, "cheese": 23276, "palmer": 23263, "portions": 23700, "sometime": 29863, "chester": 5562, "treasure": 23701, "wu": 13072, "bend": 16709, "download": 11974, "millions": 3427, "reforms": 2084, "registration": 18429, "##osa": 6191, "consequently": 9468, "monitoring": 14425, "ate": 13675, "preliminary": 22623, "brandon": 965, "invented": 6250, "ps": 1519, "eaten": 20190, "exterior": 24477, "intervention": 11263, "ports": 15892, "documented": 10926, "log": 4261, "displays": 4870, "lecture": 19165, "sally": 26136, "favourite": 21462, "##itz": 20185, "vermont": 5333, "lo": 21206, "invisible": 30348, "isle": 21684, "breed": 15746, "##ator": 4651, "journalists": 24036, "relay": 29570, "speaks": 22549, "backward": 10224, "explore": 10104, "midfielder": 13923, "actively": 20386, "stefan": 13078, "procedures": 7485, "cannon": 970, "blond": 29914, "kenneth": 9991, "centered": 22315, "servants": 5924, "chains": 3572, "libraries": 15884, "malcolm": 17632, "essex": 18865, "henri": 3543, "slavery": 22234, "##hal": 25334, "facts": 29470, "fairy": 13659, "coached": 17172, "cassie": 9100, "cats": 10556, "washed": 25312, "cop": 20500, "##fi": 23714, "announcement": 21533, "item": 25390, "2000s": 23873, "vinyl": 604, "activated": 27355, "marco": 3817, "frontier": 29880, "growled": 1514, "curriculum": 10338, "##das": 29952, "loyal": 3391, "accomplished": 8956, "leslie": 12930, "ritual": 19400, "kenny": 17008, "##00": 8334, "vii": 8574, "napoleon": 22880, "hollow": 10253, "hybrid": 15372, "jungle": 18319, "stationed": 11510, "friedrich": 4050, "counted": 7462, "##ulated": 29606, "platinum": 20528, "theatrical": 7401, "seated": 19911, "col": 335, "rubber": 8672, "glen": 2100, "1840": 14172, "diversity": 15941, "healing": 1608, "extends": 15174, "id": 6385, "provisions": 25844, "administrator": 29893, "columbus": 26173, "##oe": 27313, "tributary": 1140, "te": 2686, "assured": 322, "org": 7956, "##uous": 28909, "prestigious": 22891, "examined": 6388, "lectures": 29172, "grammy": 15508, "ronald": 15426, "associations": 6263, "bailey": 11862, "allan": 6770, "essays": 17330, "flute": 3205, "believing": 3682, "consultant": 21326, "proceedings": 17656, "travelling": 20278, "1853": 1837, "kit": 10658, "kerala": 2466, "yugoslavia": 6804, "buddy": 25475, "methodist": 4490, "##ith": 21245, "burial": 29161, "centres": 29818, "batman": 14262, "##nda": 19636, "discontinued": 30342, "bo": 9484, "dock": 17297, "stockholm": 29314, "lungs": 16332, "severely": 15866, "##nk": 21306, "citing": 8580, "manga": 3319, "##ugh": 2649, "steal": 12638, "mumbai": 12296, "iraqi": 16587, "robot": 18321, "celebrity": 16916, "bride": 11149, "broadcasts": 12634, "abolished": 19591, "pot": 20838, "joel": 24266, "overhead": 3118, "franz": 5731, "packed": 15928, "reconnaissance": 10817, "johann": 14569, "acknowledged": 29843, "introduce": 16851, "handled": 2066, "doctorate": 8437, "developments": 3220, "drinks": 7588, "alley": 17955, "palestine": 12153, "##nis": 14269, "##aki": 1443, "proceeded": 25398, "recover": 14835, "bradley": 19528, "grain": 4963, "patch": 5932, "afford": 15146, "infection": 15522, "nationalist": 22574, "legendary": 19872, "##ath": 30329, "interchange": 16104, "virtually": 22703, "gen": 1030, "gravity": 23739, "exploration": 18507, "amber": 14784, "vital": 2966, "wishes": 6119, "powell": 20033, "doctrine": 8006, "elbow": 15380, "screenplay": 26298, "##bird": 30503, "contribute": 10681, "indonesian": 14980, "pet": 5158, "creates": 861, "##com": 30154, "enzyme": 15998, "kylie": 20078, "discipline": 8877, "drops": 7507, "manila": 26042, "hunger": 19569, "##ien": 9603, "layers": 5877, "suffer": 22733, "fever": 22807, "bits": 18234, "monica": 11619, "keyboard": 3172, "manages": 10375, "##hood": 19857, "searched": 4400, "appeals": 21652, "##bad": 23530, "testament": 5471, "grande": 3399, "reid": 25416, "##war": 7723, "beliefs": 11768, "congo": 2539, "##ification": 26434, "##dia": 27310, "si": 6083, "requiring": 18935, "##via": 25898, "casey": 26930, "1849": 10269, "regret": 14484, "streak": 10043, "rape": 23378, "depends": 15516, "syrian": 17036, "sprint": 23165, "pound": 29920, "tourists": 21117, "upcoming": 23661, "pub": 25975, "##xi": 1082, "tense": 19847, "##els": 30317, "practiced": 14778, "echo": 11337, "nationwide": 3134, "guild": 20872, "motorcycle": 28372, "liz": 1240, "##zar": 15654, "chiefs": 26844, "desired": 14540, "elena": 17841, "bye": 2055, "precious": 24702, "absorbed": 20989, "relatives": 28374, "booth": 25224, "pianist": 10919, "##mal": 17986, "citizenship": 7678, "exhausted": 3203, "wilhelm": 20221, "##ceae": 15836, "##hed": 1753, "noting": 20655, "quarterback": 22542, "urge": 10625, "hectares": 1271, "##gue": 96, "ace": 14900, "holly": 24512, "##tal": 25686, "blonde": 9751, "davies": 20962, "parked": 19709, "sustainable": 27045, "stepping": 8951, "twentieth": 5978, "airfield": 22394, "galaxy": 27881, "nest": 20472, "chip": 26468, "##nell": 1979, "tan": 12941, "shaft": 21086, "paulo": 748, "requirement": 13087, "##zy": 30408, "paradise": 1838, "tobacco": 14491, "trans": 27855, "renewed": 29808, "vietnamese": 18562, "##cker": 20133, "##ju": 663, "suggesting": 4975, "catching": 18586, "holmes": 16172, "enjoying": 16958, "md": 3901, "trips": 17501, "colt": 13683, "holder": 1870, "butterfly": 427, "nerve": 29616, "reformed": 29294, "cherry": 1477, "bowling": 5566, "trailer": 28946, "carriage": 8463, "goodbye": 26734, "appreciate": 20756, "toy": 24997, "joshua": 10368, "interactive": 29206, "enabled": 6408, "involve": 12238, "##kan": 11303, "collar": 22737, "determination": 7436, "bunch": 27156, "facebook": 23147, "recall": 9647, "shorts": 4843, "superintendent": 27341, "episcopal": 11763, "frustration": 21304, "giovanni": 608, "nineteenth": 28595, "laser": 5848, "privately": 30275, "array": 270, "circulation": 25232, "##ovic": 21301, "armstrong": 27203, "deals": 318, "painful": 10973, "permit": 4022, "discrimination": 9419, "##wi": 8729, "aires": 967, "retiring": 4601, "cottage": 692, "ni": 22377, "##sta": 10914, "horizon": 17475, "ellen": 570, "jamaica": 29026, "ripped": 29643, "fernando": 25111, "chapters": 4392, "playstation": 18617, "patron": 9870, "lecturer": 3367, "navigation": 17380, "behaviour": 17509, "genes": 10689, "georgian": 21141, "export": 8151, "solomon": 29865, "rivals": 25101, "swift": 3153, "seventeen": 22534, "rodriguez": 28565, "princeton": 6397, "independently": 3069, "sox": 14631, "1847": 3464, "arguing": 22588, "entity": 12792, "casting": 28995, "hank": 28783, "criteria": 21166, "oakland": 10391, "geographic": 11490, "milwaukee": 8961, "reflection": 13225, "expanding": 7863, "conquest": 18680, "dubbed": 8751, "##tv": 28795, "halt": 28238, "brave": 24396, "brunswick": 19321, "doi": 26951, "arched": 4015, "curtis": 16021, "divorced": 2304, "predominantly": 26344, "somerset": 30393, "streams": 17377, "ugly": 20894, "zoo": 28827, "horrible": 6657, "curved": 5708, "buenos": 2677, "fierce": 23387, "dictionary": 27423, "vector": 30038, "theological": 6797, "unions": 11728, "handful": 3500, "stability": 3180, "chan": 12500, "punjab": 2731, "segments": 17852, "##lly": 28118, "altar": 27283, "ignoring": 20347, "gesture": 13263, "monsters": 15117, "pastor": 94, "##stone": 6920, "thighs": 16529, "unexpected": 26147, "operators": 29831, "abruptly": 12031, "coin": 11783, "compiled": 24773, "associates": 7114, "improving": 1498, "migration": 12131, "pin": 28438, "##ose": 29151, "compact": 23941, "collegiate": 22007, "reserved": 20142, "##urs": 11181, "quarterfinals": 29524, "roster": 21707, "restore": 20662, "assembled": 24428, "hurry": 8966, "oval": 26069, "##cies": 13292, "1846": 13032, "flags": 17928, "martha": 30243, "##del": 11359, "victories": 8258, "sharply": 16503, "##rated": 28587, "argues": 5740, "deadly": 21081, "neo": 12122, "drawings": 27852, "symbols": 14146, "performer": 4862, "##iel": 12635, "griffin": 7136, "restrictions": 23206, "editing": 5245, "andrews": 582, "java": 10642, "journals": 25455, "arabia": 3334, "compositions": 21770, "dee": 18329, "pierce": 20700, "removing": 18476, "hindi": 24959, "casino": 17639, "runway": 21097, "civilians": 15665, "minds": 26690, "nasa": 19570, "hotels": 13928, "##zation": 2772, "refuge": 10666, "rent": 18750, "retain": 19413, "potentially": 10662, "conferences": 28098, "suburban": 17169, "conducting": 30213, "##tto": 4922, "##tions": 25629, "##tle": 16849, "descended": 9216, "massacre": 61, "##cal": 7835, "ammunition": 22706, "terrain": 22347, "fork": 22629, "souls": 6858, "counts": 5647, "chelsea": 5671, "durham": 2732, "drives": 18165, "cab": 9380, "##bank": 22672, "perth": 4682, "realizing": 2487, "palestinian": 16015, "finn": 15815, "simpson": 16041, "##dal": 27123, "betty": 10016, "##ule": 26419, "moreover": 1537, "particles": 24887, "cardinals": 23772, "tent": 12842, "evaluation": 19807, "extraordinary": 6725, "##oid": 5227, "inscription": 7619, "##works": 19214, "wednesday": 28237, "chloe": 13223, "maintains": 13069, "panels": 25678, "ashley": 11720, "trucks": 1794, "##nation": 25708, "cluster": 12604, "sunlight": 1678, "strikes": 2627, "zhang": 5135, "##wing": 15819, "dialect": 18683, "canon": 12879, "##ap": 16221, "tucked": 1241, "##ws": 14434, "collecting": 26453, "##mas": 19801, "##can": 3479, "##sville": 23274, "maker": 28939, "quoted": 7877, "evan": 18063, "franco": 9340, "aria": 22106, "buying": 7085, "cleaning": 529, "eva": 3980, "closet": 8039, "provision": 4703, "apollo": 6950, "clinic": 27402, "rat": 28159, "##ez": 28653, "necessarily": 28880, "ac": 25614, "##gle": 24023, "##ising": 27779, "venues": 1251, "flipped": 13477, "cent": 3302, "spreading": 25675, "trustees": 4363, "checking": 10750, "authorized": 28377, "##sco": 22320, "disappointed": 30050, "##ado": 25740, "notion": 20008, "duration": 16093, "trumpet": 1531, "hesitated": 11074, "topped": 12315, "brussels": 16087, "rolls": 27908, "theoretical": 14849, "hint": 17304, "define": 9102, "aggressive": 11691, "repeat": 17179, "wash": 4609, "peaceful": 20603, "optical": 27063, "width": 640, "allegedly": 25421, "mcdonald": 8768, "strict": 8335, "copyright": 16832, "##illa": 27121, "investors": 15199, "mar": 21774, "jam": 21441, "witnesses": 20344, "sounding": 20526, "miranda": 25793, "michelle": 18734, "privacy": 7838, "hugo": 18080, "harmony": 8217, "##pp": 10513, "valid": 5521, "lynn": 16542, "glared": 28764, "nina": 7282, "102": 10859, "headquartered": 24097, "diving": 12809, "boarding": 3909, "gibson": 17771, "##ncy": 5653, "albanian": 12527, "marsh": 7460, "routine": 8832, "dealt": 25646, "enhanced": 21083, "er": 17698, "intelligent": 21665, "substance": 26448, "targeted": 6622, "enlisted": 11708, "discovers": 18751, "spinning": 11607, "observations": 11686, "pissed": 18899, "smoking": 8808, "rebecca": 17450, "capitol": 4237, "visa": 13663, "varied": 17939, "costume": 12331, "seemingly": 14519, "indies": 10217, "compensation": 8647, "surgeon": 11366, "thursday": 5240, "arsenal": 23860, "westminster": 16985, "suburbs": 4634, "rid": 17298, "anglican": 23771, "##ridge": 22002, "knots": 1719, "foods": 124, "alumni": 5494, "lighter": 1611, "fraser": 2745, "whoever": 17513, "portal": 5325, "scandal": 27671, "##ray": 21460, "gavin": 2323, "advised": 26494, "instructor": 29780, "flooding": 27664, "terrorist": 17227, "##ale": 17328, "teenage": 4061, "interim": 25107, "senses": 28341, "duck": 5447, "teen": 8303, "thesis": 478, "abby": 27440, "eager": 20739, "overcome": 26566, "##ile": 29038, "newport": 23273, "glenn": 23217, "rises": 24270, "shame": 2685, "##cc": 12984, "prompted": 23205, "priority": 7377, "forgot": 9186, "bomber": 11419, "nicolas": 15963, "protective": 4823, "360": 15184, "cartoon": 25753, "katherine": 14675, "breeze": 13492, "lonely": 1661, "trusted": 1830, "henderson": 5005, "richardson": 21536, "relax": 1296, "banner": 25716, "candy": 7887, "palms": 24013, "remarkable": 26257, "##rio": 2198, "legends": 24206, "cricketer": 22507, "essay": 18174, "ordained": 26368, "edmund": 2373, "rifles": 3478, "trigger": 26219, "##uri": 17081, "##away": 15521, "sail": 15736, "alert": 7593, "1830": 29826, "audiences": 39, "penn": 27970, "sussex": 15830, "siblings": 2171, "pursued": 9526, "indianapolis": 1557, "resist": 17205, "rosa": 7455, "consequence": 10102, "succeed": 17769, "avoided": 16388, "1845": 17728, "##ulation": 3711, "inland": 17239, "##tie": 29710, "##nna": 1707, "counsel": 8565, "profession": 22696, "chronicle": 12701, "hurried": 11089, "##una": 28657, "eyebrow": 4386, "eventual": 27417, "bleeding": 8262, "innovative": 3397, "cure": 3846, "##dom": 20686, "committees": 26998, "accounting": 10424, "con": 2314, "scope": 5626, "hardy": 5051, "heather": 25093, "tenor": 901, "gut": 21096, "herald": 15956, "codes": 21617, "tore": 19065, "scales": 22343, "wagon": 17164, "##oo": 10283, "luxury": 18527, "tin": 25899, "prefer": 17630, "fountain": 10265, "triangle": 8424, "bonds": 6112, "darling": 29563, "convoy": 15705, "dried": 241, "traced": 20376, "beings": 9851, "troy": 21448, "accidentally": 30062, "slam": 11646, "findings": 13950, "smelled": 12453, "joey": 933, "lawyers": 16937, "outcome": 12708, "steep": 30444, "bosnia": 26797, "configuration": 17800, "shifting": 29335, "toll": 3688, "brook": 8549, "performers": 10783, "lobby": 2826, "philosophical": 20175, "construct": 342, "shrine": 8111, "aggregate": 1512, "boot": 27349, "cox": 27673, "phenomenon": 11297, "savage": 24768, "insane": 27611, "solely": 4824, "reynolds": 21607, "lifestyle": 7491, "##ima": 1908, "nationally": 6342, "holdings": 7321, "consideration": 7734, "enable": 26776, "edgar": 25346, "mo": 4076, "mama": 8994, "##tein": 26148, "fights": 7, "relegation": 29723, "chances": 29866, "atomic": 18240, "hub": 22521, "conjunction": 3814, "awkward": 4616, "reactions": 24103, "currency": 14328, "finale": 13784, "kumar": 3150, "underwent": 55, "steering": 6314, "elaborate": 931, "gifts": 2059, "comprising": 25401, "melissa": 1289, "veins": 27010, "reasonable": 27670, "sunshine": 3896, "chi": 17715, "solve": 23808, "trails": 13670, "inhabited": 20169, "elimination": 15278, "ethics": 27343, "huh": 26718, "ana": 29262, "molly": 4686, "consent": 298, "apartments": 15012, "layout": 1011, "marines": 29380, "##ces": 1631, "hunters": 12330, "bulk": 1510, "##oma": 847, "hometown": 25811, "##wall": 28779, "##mont": 29973, "cracked": 14386, "reads": 14999, "neighbouring": 2133, "withdrawn": 13967, "admission": 21363, "wingspan": 30356, "damned": 682, "anthology": 19464, "lancashire": 30191, "brands": 16968, "batting": 22072, "forgive": 25123, "cuban": 30274, "awful": 14847, "##lyn": 7763, "104": 11893, "dimensions": 20628, "imagination": 3091, "##ade": 10730, "dante": 28768, "##ship": 19759, "tracking": 12319, "desperately": 21188, "goalkeeper": 29698, "##yne": 12430, "groaned": 4571, "workshops": 24486, "confident": 27142, "burton": 24537, "gerald": 19259, "milton": 21909, "circus": 18688, "uncertain": 9234, "slope": 8654, "copenhagen": 16276, "sophia": 25008, "fog": 23114, "philosopher": 29680, "portraits": 21714, "accent": 9286, "cycling": 913, "varying": 1255, "gripped": 21161, "larvae": 20927, "garrett": 18581, "specified": 5351, "scotia": 27597, "mature": 14812, "luther": 8176, "kurt": 15365, "rap": 1335, "##kes": 23049, "aerial": 2776, "750": 1207, "ferdinand": 3371, "heated": 21405, "es": 17249, "transported": 2377, "##shan": 13347, "safely": 191, "nonetheless": 24821, "##orn": 18793, "##gal": 18173, "motors": 19747, "demanding": 16499, "##sburg": 19478, "startled": 15033, "##brook": 24139, "ally": 5097, "generate": 27820, "caps": 2569, "ghana": 30058, "stained": 13560, "demo": 13813, "mentions": 18900, "beds": 26469, "ap": 27990, "afterward": 29781, "diary": 1215, "##bling": 29505, "utility": 2271, "##iro": 21484, "richards": 18302, "1837": 29428, "conspiracy": 26563, "conscious": 9803, "shining": 28555, "footsteps": 22455, "observer": 1127, "cyprus": 26374, "urged": 29521, "loyalty": 2775, "developer": 3667, "probability": 27879, "olive": 20269, "upgraded": 28192, "gym": 12012, "miracle": 24239, "insects": 19713, "graves": 9562, "1844": 24978, "ourselves": 18486, "hydrogen": 889, "amazon": 12253, "katie": 18201, "tickets": 17126, "poets": 19056, "##pm": 29560, "planes": 29705, "##pan": 17697, "prevention": 27100, "witnessed": 13298, "dense": 2902, "jin": 1963, "randy": 12784, "tang": 23208, "warehouse": 28158, "monroe": 20434, "bang": 15327, "archived": 15542, "elderly": 159, "investigations": 20246, "alec": 12100, "granite": 1682, "mineral": 19362, "conflicts": 23753, "controlling": 23476, "aboriginal": 14739, "carlo": 11614, "##zu": 14576, "mechanics": 10983, "stan": 16427, "stark": 2251, "rhode": 26427, "skirt": 12841, "est": 12121, "##berry": 17988, "bombs": 4081, "respected": 26828, "##horn": 21590, "imposed": 14647, "limestone": 9188, "deny": 7221, "nominee": 1103, "memphis": 8278, "grabbing": 18050, "disabled": 6577, "##als": 3987, "amusement": 13166, "aa": 27037, "frankfurt": 1475, "corn": 19096, "referendum": 1829, "varies": 23723, "slowed": 22221, "disk": 10294, "firms": 24588, "unconscious": 4584, "incredible": 14558, "clue": 8920, "sue": 9107, "##zhou": 21360, "twist": 21805, "##cio": 28466, "joins": 26560, "idaho": 4222, "chad": 25872, "developers": 9060, "computing": 485, "destroyer": 29599, "103": 28951, "mortal": 25322, "tucker": 6757, "kingston": 28610, "choices": 26672, "yu": 18277, "carson": 2951, "1800": 14694, "os": 17892, "whitney": 3344, "geneva": 11698, "pretend": 23382, "dimension": 28897, "staged": 15808, "plateau": 24994, "maya": 18247, "##une": 10931, "freestyle": 6795, "##bc": 25822, "rovers": 10452, "hiv": 11625, "##ids": 4721, "tristan": 1581, "classroom": 10903, "prospect": 7172, "##hus": 16059, "honestly": 27917, "diploma": 2028, "lied": 22656, "thermal": 18470, "auxiliary": 3968, "feast": 22080, "unlikely": 26190, "iata": 17386, "##tel": 1896, "morocco": 26916, "pounding": 19863, "treasury": 3337, "lithuania": 5716, "considerably": 4849, "1841": 24050, "dish": 253, "1812": 9649, "geological": 9508, "matching": 19280, "stumbled": 13101, "destroying": 5548, "marched": 3317, "brien": 26094, "advances": 8724, "cake": 29081, "nicole": 2428, "belle": 12594, "settling": 27591, "measuring": 16037, "directing": 4091, "##mie": 13815, "tuesday": 26550, "bassist": 23178, "capabilities": 2488, "stunned": 30048, "fraud": 25869, "torpedo": 2459, "##list": 9418, "##phone": 29476, "anton": 8120, "wisdom": 280, "surveillance": 24586, "ruined": 4555, "##ulate": 25303, "lawsuit": 5584, "healthcare": 23541, "theorem": 29688, "halls": 20202, "trend": 13401, "aka": 22610, "horizontal": 1773, "dozens": 7192, "acquire": 10723, "lasting": 24006, "swim": 13103, "hawk": 3848, "gorgeous": 5551, "fees": 13178, "vicinity": 20469, "decrease": 26377, "adoption": 25833, "tactics": 8389, "##ography": 18574, "pakistani": 26029, "##ole": 2830, "draws": 23620, "##hall": 11371, "willie": 13834, "burke": 4746, "heath": 15452, "algorithm": 28196, "integral": 28417, "powder": 25059, "elliott": 22045, "brigadier": 6207, "jackie": 16889, "tate": 13121, "varieties": 17468, "darker": 13146, "##cho": 7622, "lately": 28539, "cigarette": 26280, "specimens": 23278, "adds": 12571, "##ree": 21205, "##ensis": 18044, "##inger": 6917, "exploded": 631, "finalist": 14284, "cia": 22804, "murders": 25610, "wilderness": 8065, "arguments": 18999, "nicknamed": 3375, "acceptance": 21214, "onwards": 16004, "manufacture": 23293, "robertson": 29961, "jets": 26517, "tampa": 20611, "enterprises": 28251, "blog": 4965, "loudly": 16387, "composers": 1416, "nominations": 16911, "1838": 8787, "ai": 23187, "malta": 19031, "inquiry": 27022, "automobile": 14505, "hosting": 5412, "viii": 19423, "rays": 27736, "tilted": 5794, "grief": 27468, "museums": 24397, "strategies": 18334, "furious": 1311, "euro": 17668, "equality": 22518, "cohen": 28757, "poison": 14876, "surrey": 29675, "wireless": 22458, "governed": 22861, "ridiculous": 27515, "moses": 16097, "##esh": 6896, "##room": 2363, "vanished": 2663, "##ito": 20633, "barnes": 13907, "attract": 2218, "morrison": 6995, "istanbul": 5735, "##iness": 12217, "absent": 4331, "rotation": 19476, "petition": 21406, "janet": 7926, "##logical": 8223, "satisfaction": 10883, "custody": 14348, "deliberately": 11754, "observatory": 29232, "comedian": 29295, "surfaces": 119, "pinyin": 14871, "novelist": 16434, "strictly": 20539, "canterbury": 14056, "oslo": 3932, "monks": 15966, "embrace": 8517, "ibm": 21804, "jealous": 26854, "photograph": 12601, "continent": 9259, "dorothy": 25652, "marina": 19809, "doc": 4815, "excess": 21017, "holden": 20706, "allegations": 8916, "explaining": 27113, "stack": 27035, "avoiding": 20753, "lance": 17848, "storyline": 26197, "majesty": 13124, "poorly": 5209, "spike": 26089, "dos": 3084, "bradford": 22742, "raven": 12948, "travis": 20777, "classics": 27047, "proven": 15067, "voltage": 13559, "pillow": 29163, "fists": 9743, "butt": 3293, "1842": 16596, "interpreted": 1245, "##car": 9119, "1839": 15875, "gage": 2321, "telegraph": 27091, "lens": 16308, "promising": 5087, "expelled": 26710, "casual": 28301, "collector": 23498, "zones": 22601, "##min": 19903, "silly": 7929, "nintendo": 22444, "##kh": 8009, "##bra": 18161, "downstairs": 2824, "chef": 4347, "suspicious": 14390, "afl": 9960, "flies": 2224, "vacant": 15428, "uganda": 20533, "pregnancy": 11369, "condemned": 9214, "lutheran": 14017, "estimates": 24663, "cheap": 18816, "decree": 28756, "saxon": 10204, "proximity": 1209, "stripped": 28116, "idiot": 415, "deposits": 19619, "contrary": 19997, "presenter": 27713, "magnus": 16317, "glacier": 30207, "im": 17808, "offense": 16653, "edwin": 844, "##ori": 9414, "upright": 28921, "##long": 5779, "bolt": 9485, "##ois": 24503, "toss": 25071, "geographical": 6818, "##izes": 13557, "environments": 22077, "delicate": 25227, "marking": 6384, "abstract": 28498, "xavier": 11182, "nails": 22952, "windsor": 30014, "plantation": 26543, "occurring": 14892, "equity": 28709, "saskatchewan": 26547, "fears": 15238, "drifted": 17003, "sequences": 19651, "vegetation": 6173, "revolt": 15712, "##stic": 29023, "1843": 5820, "sooner": 10184, "fusion": 7772, "opposing": 19584, "nato": 15444, "skating": 13227, "1836": 8664, "secretly": 9797, "ruin": 1120, "lease": 23118, "##oc": 8655, "edit": 2425, "##nne": 27015, "flora": 18177, "anxiety": 14278, "ruby": 22210, "##ological": 13741, "##mia": 4782, "tel": 10997, "bout": 5132, "taxi": 2312, "emmy": 9788, "frost": 3998, "rainbow": 1212, "compounds": 8213, "foundations": 6278, "rainfall": 8594, "assassination": 9912, "nightmare": 26619, "dominican": 27308, "##win": 30447, "achievements": 29067, "deserve": 26920, "orlando": 1820, "intact": 28790, "armenia": 26769, "##nte": 13920, "calgary": 25347, "valentine": 421, "106": 25516, "marion": 25979, "proclaimed": 5615, "theodore": 7632, "bells": 4804, "courtyard": 14212, "thigh": 1939, "gonzalez": 3497, "console": 18056, "troop": 2151, "minimal": 20467, "monte": 14637, "everyday": 22102, "##ence": 24416, "##if": 7658, "supporter": 26343, "terrorism": 3698, "buck": 14119, "openly": 369, "presbyterian": 17652, "activists": 7751, "carpet": 23875, "##iers": 13026, "rubbing": 22529, "uprising": 5888, "##yi": 25987, "cute": 12870, "conceived": 27129, "legally": 22123, "##cht": 21003, "millennium": 22845, "cello": 24863, "velocity": 5880, "ji": 6893, "rescued": 18697, "cardiff": 13716, "1835": 8623, "rex": 3549, "concentrate": 28411, "senators": 19008, "beard": 14921, "rendered": 9949, "glowing": 11677, "battalions": 22996, "scouts": 15417, "competitors": 8534, "sculptor": 17820, "catalogue": 26112, "arctic": 19260, "ion": 20292, "raja": 6400, "bicycle": 22402, "wow": 28095, "glancing": 21453, "lawn": 181, "##woman": 3681, "gentleman": 2432, "lighthouse": 2127, "publish": 15185, "predicted": 11442, "calculated": 25426, "##val": 13899, "variants": 24325, "##gne": 26228, "strain": 1720, "##ui": 29727, "winston": 5383, "deceased": 25230, "##nus": 25722, "touchdowns": 23262, "brady": 30226, "caleb": 1796, "sinking": 5604, "echoed": 28467, "crush": 10416, "hon": 17977, "blessed": 4362, "protagonist": 21812, "hayes": 22979, "endangered": 10180, "magnitude": 27919, "editors": 23974, "##tine": 14447, "estimate": 2605, "responsibilities": 10567, "##mel": 4071, "backup": 7359, "laying": 14510, "consumed": 29096, "sealed": 21445, "zurich": 19967, "lovers": 11767, "frustrated": 13414, "##eau": 12258, "ahmed": 28684, "kicking": 9944, "mit": 18648, "treasurer": 13742, "1832": 15228, "biblical": 8851, "refuse": 7327, "terrified": 13502, "pump": 17535, "agrees": 521, "genuine": 10221, "imprisonment": 27504, "refuses": 11552, "plymouth": 3490, "##hen": 18084, "lou": 24666, "##nen": 20025, "tara": 22832, "trembling": 16183, "antarctic": 24386, "ton": 18147, "learns": 25208, "##tas": 4094, "crap": 21756, "crucial": 8306, "faction": 26225, "atop": 21679, "##borough": 21593, "wrap": 3469, "lancaster": 2175, "odds": 6705, "hopkins": 9533, "erik": 8870, "lyon": 24939, "##eon": 18549, "bros": 1346, "##ode": 26808, "snap": 28014, "locality": 16275, "tips": 21265, "empress": 24087, "crowned": 14732, "cal": 27183, "acclaimed": 17096, "chuckled": 14780, "##ory": 25257, "clara": 26913, "sends": 27162, "mild": 13066, "towel": 28987, "##fl": 2754, "##day": 23680, "##\u0430": 6847, "wishing": 25749, "assuming": 26988, "interviewed": 21332, "##bal": 15264, "##die": 14948, "interactions": 24082, "eden": 30026, "cups": 29147, "helena": 19154, "##lf": 10189, "indie": 25259, "beck": 21165, "##fire": 618, "batteries": 27450, "filipino": 23866, "wizard": 7922, "parted": 26615, "##lam": 493, "traces": 11654, "##born": 5213, "rows": 27717, "idol": 24682, "albany": 25023, "delegates": 17840, "##ees": 10149, "##sar": 3715, "discussions": 14598, "##ex": 1534, "notre": 26325, "instructed": 8194, "belgrade": 25277, "highways": 2359, "suggestion": 6111, "lauren": 29958, "possess": 3856, "orientation": 14129, "alexandria": 23692, "abdul": 25827, "beats": 14875, "salary": 8104, "reunion": 7620, "ludwig": 6678, "alright": 10138, "wagner": 11291, "intimate": 5429, "pockets": 24399, "slovenia": 30364, "hugged": 1650, "brighton": 9621, "merchants": 23932, "cruel": 26493, "stole": 16679, "trek": 4178, "slopes": 9818, "repairs": 22831, "enrollment": 21510, "politically": 8903, "underlying": 21034, "promotional": 26819, "counting": 25925, "boeing": 909, "##bb": 11188, "isabella": 3614, "naming": 23945, "##\u0438": 17018, "keen": 27331, "bacteria": 28963, "listing": 4125, "separately": 15862, "belfast": 18981, "ussr": 15563, "450": 25062, "lithuanian": 7684, "anybody": 26049, "ribs": 25574, "sphere": 9714, "martinez": 26438, "cock": 6474, "embarrassed": 13305, "proposals": 18105, "fragments": 1507, "nationals": 6170, "##fs": 5517, "##wski": 19929, "premises": 846, "fin": 9688, "1500": 16145, "alpine": 10132, "matched": 22775, "freely": 26681, "bounded": 24288, "jace": 28191, "sleeve": 22039, "##af": 22950, "gaming": 192, "pier": 27948, "populated": 12051, "evident": 13836, "##like": 29369, "frances": 23538, "flooded": 27835, "##dle": 25912, "frightened": 23216, "pour": 12554, "trainer": 26386, "framed": 22340, "visitor": 21193, "challenging": 18035, "pig": 7947, "wickets": 12298, "##fold": 16109, "infected": 1670, "email": 12199, "##pes": 10620, "arose": 2252, "##aw": 2614, "reward": 15682, "ecuador": 5322, "oblast": 25746, "vale": 23699, "ch": 1790, "shuttle": 23261, "##usa": 18817, "bach": 21818, "rankings": 26349, "forbidden": 8568, "cornwall": 29811, "accordance": 17030, "salem": 28045, "consumers": 12619, "bruno": 14403, "fantastic": 16848, "toes": 20888, "machinery": 6031, "resolved": 12642, "julius": 11534, "remembering": 187, "propaganda": 10957, "iceland": 21464, "bombardment": 28037, "tide": 15974, "contacts": 11827, "wives": 23757, "##rah": 2866, "concerto": 24810, "macdonald": 27543, "albania": 10874, "implement": 7342, "daisy": 14863, "tapped": 8113, "sudan": 25868, "helmet": 1321, "angela": 4590, "mistress": 27838, "##lic": 1518, "crop": 3301, "sunk": 25762, "finest": 7880, "##craft": 1126, "hostile": 23434, "##ute": 5250, "##tsu": 25244, "boxer": 18327, "fr": 6625, "paths": 4169, "adjusted": 1143, "habit": 5632, "ballot": 18323, "supervision": 6784, "soprano": 3915, "##zen": 20895, "bullets": 27443, "wicked": 7046, "sunset": 15009, "regiments": 29775, "disappear": 20470, "lamp": 21820, "performs": 3824, "app": 17557, "##gia": 3586, "##oa": 22508, "rabbit": 7416, "digging": 14904, "incidents": 15914, "entries": 13059, "##cion": 5698, "dishes": 13816, "##oi": 22365, "introducing": 18668, "##ati": 27196, "##fied": 28607, "freshman": 2034, "slot": 13435, "jill": 28161, "tackles": 10198, "baroque": 3145, "backs": 3097, "##iest": 22935, "lone": 6252, "sponsor": 25319, "destiny": 9752, "altogether": 20196, "convert": 17331, "##aro": 13961, "consensus": 1105, "shapes": 19473, "demonstration": 17905, "basically": 9026, "feminist": 19892, "auction": 23660, "artifacts": 15142, "##bing": 964, "strongest": 12024, "twitter": 12495, "halifax": 24846, "2019": 2008, "allmusic": 5764, "mighty": 12853, "smallest": 14357, "precise": 10792, "alexandra": 20237, "viola": 26306, "##los": 27189, "##ille": 4097, "manuscripts": 5686, "##illo": 9882, "dancers": 8806, "ari": 29455, "managers": 15546, "monuments": 1551, "blades": 4553, "barracks": 1688, "springfield": 11570, "maiden": 6726, "consolidated": 25115, "electron": 7846, "##end": 25829, "berry": 12721, "airing": 16368, "wheat": 9337, "nobel": 27527, "inclusion": 25648, "blair": 14869, "payments": 27593, "geography": 22973, "bee": 28083, "cc": 23236, "eleanor": 6249, "react": 5405, "##hurst": 18918, "afc": 16142, "manitoba": 30390, "##yu": 1129, "su": 38, "lineup": 29844, "fitness": 28029, "recreational": 19894, "investments": 19455, "airborne": 19331, "disappointment": 797, "##dis": 6050, "edmonton": 22833, "viewing": 11997, "##row": 10676, "renovation": 16361, "##cast": 279, "infant": 27467, "bankruptcy": 15186, "roses": 16561, "aftermath": 14790, "pavilion": 12193, "##yer": 10677, "carpenter": 20080, "withdrawal": 27392, "ladder": 19173, "##hy": 17927, "discussing": 13676, "popped": 12441, "reliable": 24277, "agreements": 29461, "rochester": 17824, "##abad": 9136, "curves": 2600, "bombers": 19369, "220": 20678, "rao": 16343, "reverend": 2956, "decreased": 26224, "choosing": 4108, "107": 2129, "stiff": 1174, "consulting": 7461, "naples": 28883, "crawford": 19352, "tracy": 23200, "ka": 20999, "ribbon": 12835, "cops": 13265, "##lee": 23733, "crushed": 5210, "deciding": 8804, "unified": 7370, "teenager": 22511, "accepting": 15016, "flagship": 29601, "explorer": 10650, "poles": 2668, "sanchez": 13046, "inspection": 29553, "revived": 30018, "skilled": 13965, "induced": 28625, "exchanged": 5928, "flee": 10958, "locals": 18325, "tragedy": 26805, "swallow": 22586, "loading": 23015, "hanna": 18484, "demonstrate": 24476, "##ela": 27605, "salvador": 10461, "flown": 2982, "contestants": 223, "civilization": 2941, "##ines": 5122, "wanna": 352, "rhodes": 17826, "fletcher": 22718, "hector": 11627, "knocking": 3525, "considers": 24578, "##ough": 4624, "nash": 19914, "mechanisms": 8922, "sensed": 27887, "mentally": 7156, "walt": 20084, "unclear": 27431, "##eus": 10484, "renovated": 6650, "madame": 27574, "##cks": 4251, "crews": 2812, "governmental": 22331, "##hin": 23055, "undertaken": 8051, "monkey": 27284, "##ben": 29373, "##ato": 8232, "fatal": 12283, "armored": 4382, "copa": 7147, "caves": 10802, "governance": 25144, "grasp": 15891, "perception": 7545, "certification": 19578, "froze": 6182, "damp": 21388, "tugged": 23004, "wyoming": 7495, "##rg": 17868, "##ero": 27369, "newman": 2049, "##lor": 21672, "nerves": 11236, "curiosity": 21344, "graph": 22847, "115": 15046, "##ami": 26353, "withdraw": 15050, "tunnels": 6332, "dull": 15571, "meredith": 27939, "moss": 30479, "exhibits": 17480, "neighbors": 13509, "communicate": 23578, "accuracy": 12434, "explored": 19315, "raiders": 3079, "republicans": 13689, "secular": 14311, "kat": 30415, "superman": 26603, "penny": 5388, "criticised": 17514, "##tch": 18465, "freed": 9439, "update": 20285, "conviction": 21558, "wade": 17585, "ham": 1059, "likewise": 15506, "delegation": 7940, "gotta": 21695, "doll": 5720, "promises": 6239, "technological": 802, "myth": 27429, "nationality": 18252, "resolve": 1697, "convent": 10044, "##mark": 7775, "sharon": 7945, "dig": 5251, "sip": 18971, "coordinator": 22218, "entrepreneur": 22029, "fold": 4765, "##dine": 14701, "capability": 27875, "councillor": 1374, "synonym": 27768, "blown": 11859, "swan": 12225, "cursed": 25515, "1815": 21200, "jonas": 213, "haired": 7701, "sofa": 25066, "canvas": 17494, "keeper": 16017, "rivalry": 22609, "##hart": 24332, "rapper": 5450, "speedway": 13350, "swords": 19221, "postal": 12631, "maxwell": 22407, "estonia": 15044, "potter": 19228, "recurring": 2012, "##nn": 5423, "##ave": 3997, "errors": 6925, "##oni": 21978, "cognitive": 25194, "1834": 9762, "##\u00b2": 23033, "claws": 8750, "nadu": 19373, "roberto": 4653, "bce": 5109, "wrestler": 6862, "ellie": 4855, "##ations": 23141, "infinite": 23736, "ink": 1434, "##tia": 11887, "presumably": 17192, "finite": 22322, "staircase": 18572, "108": 3071, "noel": 2499, "patricia": 6556, "nacional": 16740, "##cation": 7745, "chill": 3615, "eternal": 25639, "tu": 19275, "preventing": 4430, "prussia": 6975, "fossil": 19511, "limbs": 17, "##logist": 1285, "ernst": 21239, "frog": 14354, "perez": 4845, "rene": 3635, "##ace": 28093, "pizza": 3584, "prussian": 12221, "##ios": 25196, "##vy": 12914, "molecules": 16888, "regulatory": 14267, "answering": 4774, "opinions": 18767, "sworn": 19481, "lengths": 24410, "supposedly": 5177, "hypothesis": 8351, "upward": 450, "habitats": 13085, "seating": 19462, "ancestors": 17464, "drank": 26548, "yield": 19104, "hd": 10405, "synthesis": 20295, "researcher": 18339, "modest": 14416, "##var": 26849, "mothers": 15165, "peered": 29118, "voluntary": 26804, "homeland": 29327, "##the": 5753, "acclaim": 28568, "##igan": 19024, "static": 22283, "valve": 7200, "luxembourg": 153, "alto": 1580, "carroll": 27388, "fe": 2476, "receptor": 15742, "norton": 12649, "ambulance": 24271, "##tian": 10380, "johnston": 20236, "catholics": 3111, "depicting": 5399, "jointly": 835, "elephant": 17313, "gloria": 22100, "mentor": 25182, "badge": 26748, "ahmad": 804, "distinguish": 16092, "remarked": 23473, "councils": 729, "precisely": 30379, "allison": 14730, "advancing": 15329, "detection": 11851, "crowded": 15530, "##10": 4645, "cooperative": 27579, "ankle": 24027, "mercedes": 27496, "dagger": 14628, "surrendered": 9584, "pollution": 5474, "commit": 22872, "subway": 29085, "jeffrey": 1366, "lesson": 3939, "sculptures": 21001, "provider": 3320, "##fication": 29409, "membrane": 3184, "timothy": 22796, "rectangular": 24063, "fiscal": 15766, "heating": 16463, "teammate": 1919, "basket": 26051, "particle": 4519, "anonymous": 4879, "deployment": 30519, "##ple": 17305, "missiles": 3855, "courthouse": 16354, "proportion": 26502, "shoe": 25383, "sec": 8420, "##ller": 9630, "complaints": 14057, "forbes": 26871, "blacks": 26322, "abandon": 6496, "remind": 25873, "sizes": 6386, "overwhelming": 30105, "autobiography": 29970, "natalie": 118, "##awa": 10123, "risks": 7113, "contestant": 22938, "countryside": 17873, "babies": 5046, "scorer": 6645, "invaded": 20942, "enclosed": 28497, "proceed": 7695, "hurling": 8150, "disorders": 10637, "##cu": 1727, "reflecting": 23744, "continuously": 14300, "cruiser": 7699, "graduates": 28917, "freeway": 22960, "investigated": 9049, "ore": 26891, "deserved": 13120, "maid": 23686, "blocking": 10729, "phillip": 28324, "jorge": 8493, "shakes": 13441, "dove": 6468, "mann": 16881, "variables": 28403, "lacked": 30165, "burden": 7845, "accompanying": 555, "que": 28264, "consistently": 546, "organizing": 12933, "provisional": 4032, "complained": 15799, "endless": 25321, "##rm": 22995, "tubes": 7269, "juice": 18546, "georges": 17444, "krishna": 11386, "mick": 11596, "labels": 17953, "thriller": 3922, "##uch": 7338, "laps": 21199, "arcade": 22194, "sage": 27548, "snail": 2353, "##table": 29873, "shannon": 5263, "fi": 24550, "laurence": 3593, "seoul": 7802, "vacation": 3787, "presenting": 563, "hire": 17505, "churchill": 30170, "surprisingly": 19674, "prohibited": 29897, "savannah": 6827, "technically": 21416, "##oli": 23604, "170": 1220, "##lessly": 23634, "testimony": 16607, "suited": 389, "speeds": 27589, "toys": 11547, "romans": 21577, "mlb": 8329, "flowering": 19510, "measurement": 2757, "talented": 12860, "kay": 3752, "settings": 16347, "charleston": 8135, "expectations": 21134, "shattered": 14093, "achieving": 7856, "triumph": 18926, "ceremonies": 6782, "portsmouth": 21560, "lanes": 4937, "mandatory": 27686, "loser": 18443, "stretching": 17128, "cologne": 21007, "realizes": 8529, "seventy": 1148, "cornell": 5555, "careers": 11028, "webb": 14210, "##ulating": 28990, "americas": 14944, "budapest": 28176, "ava": 6922, "suspicion": 17465, "##ison": 5029, "yo": 11697, "conrad": 14032, "##hai": 12898, "sterling": 7446, "jessie": 11309, "rector": 4268, "##az": 29495, "1831": 24556, "transform": 19694, "organize": 14911, "loans": 790, "christine": 17166, "volcanic": 23195, "warrant": 15197, "slender": 5023, "summers": 26242, "subfamily": 12723, "newer": 29797, "danced": 7891, "dynamics": 17693, "rhine": 25040, "proceeds": 5276, "heinrich": 21450, "gastropod": 30022, "commands": 12757, "sings": 16708, "facilitate": 3905, "easter": 27794, "ra": 28742, "positioned": 20317, "responses": 139, "expense": 9946, "fruits": 22485, "yanked": 18721, "imported": 29512, "25th": 25155, "velvet": 5398, "vic": 9377, "primitive": 27737, "tribune": 20805, "baldwin": 8735, "neighbourhood": 19361, "donna": 1722, "rip": 3242, "hay": 3595, "pr": 15309, "##uro": 17625, "1814": 29499, "espn": 29329, "welcomed": 25576, "##aria": 17072, "qualifier": 26444, "glare": 19185, "highland": 8419, "timing": 27311, "##cted": 25314, "shells": 12023, "eased": 11485, "geometry": 8891, "louder": 1172, "exciting": 2269, "slovakia": 19237, "##sion": 17681, "##iz": 21425, "##lot": 2688, "savings": 8884, "prairie": 20589, "##ques": 2987, "marching": 1084, "rafael": 16524, "tonnes": 6716, "##lled": 19336, "curtain": 2496, "preceding": 1824, "shy": 14966, "heal": 18494, "greene": 20934, "worthy": 26202, "##pot": 16600, "detachment": 13352, "bury": 2458, "sherman": 20165, "##eck": 24079, "reinforced": 22395, "seeks": 21009, "bottles": 28483, "contracted": 11218, "duchess": 1026, "outfit": 24213, "walsh": 1901, "##sc": 13517, "mickey": 5188, "##ase": 30397, "geoffrey": 18510, "archer": 21057, "squeeze": 24175, "dawson": 11102, "eliminate": 10409, "invention": 18159, "##enberg": 28409, "neal": 12755, "##eth": 15334, "stance": 19449, "dealer": 14367, "coral": 13537, "maple": 21426, "retire": 9632, "polo": 15559, "simplified": 23595, "##ht": 4629, "1833": 29565, "hid": 7973, "watts": 28457, "backwards": 6294, "jules": 2188, "##oke": 25831, "genesis": 15378, "mt": 19261, "frames": 20783, "rebounds": 15597, "burma": 21247, "woodland": 23740, "moist": 22988, "santos": 14605, "whispers": 26633, "drained": 667, "subspecies": 24328, "##aa": 7634, "streaming": 2052, "ulster": 24275, "burnt": 24052, "correspondence": 16745, "maternal": 18506, "gerard": 28648, "denis": 23130, "stealing": 537, "##load": 28328, "genius": 29122, "duchy": 17583, "##oria": 12819, "inaugurated": 7122, "momentum": 11814, "suits": 18238, "placement": 2146, "sovereign": 25644, "clause": 14335, "thames": 28710, "##hara": 2145, "confederation": 2585, "reservation": 23126, "sketch": 10717, "yankees": 1175, "lets": 21466, "rotten": 25432, "charm": 25825, "hal": 28295, "verses": 8824, "ultra": 17092, "commercially": 30082, "dot": 29909, "salon": 15886, "citation": 22768, "adopt": 25434, "winnipeg": 9276, "mist": 15111, "allocated": 15896, "cairo": 10864, "##boy": 14228, "jenkins": 683, "interference": 13311, "objectives": 19767, "##wind": 30309, "1820": 19797, "portfolio": 13097, "armoured": 28308, "sectors": 7629, "##eh": 20921, "initiatives": 317, "##world": 22323, "integrity": 21880, "exercises": 28959, "robe": 25355, "tap": 25302, "ab": 22797, "gazed": 3755, "##tones": 20759, "distracted": 14457, "rulers": 10630, "111": 5499, "favorable": 27039, "jerome": 15092, "tended": 2890, "cart": 7315, "factories": 15375, "##eri": 28679, "diplomat": 374, "valued": 22902, "gravel": 20400, "charitable": 10290, "##try": 1006, "calvin": 5987, "exploring": 1436, "chang": 16336, "shepherd": 19143, "terrace": 17615, "pdf": 175, "pupil": 15386, "##ural": 26259, "reflects": 15608, "ups": 12085, "##rch": 9330, "governors": 25796, "shelf": 28678, "depths": 23106, "##nberg": 15440, "trailed": 4951, "crest": 1736, "tackle": 5918, "##nian": 29569, "##ats": 3438, "hatred": 23048, "##kai": 11459, "clare": 20300, "makers": 30066, "ethiopia": 3267, "longtime": 9429, "detected": 10194, "embedded": 14530, "lacking": 18825, "slapped": 13662, "rely": 12859, "thomson": 4369, "anticipation": 17401, "iso": 29204, "morton": 6453, "successive": 228, "agnes": 18491, "screenwriter": 19648, "straightened": 21109, "philippe": 859, "playwright": 12610, "haunted": 25095, "licence": 12874, "iris": 11455, "intentions": 9602, "sutton": 9443, "112": 27464, "logical": 25058, "correctly": 14165, "##weight": 23392, "branded": 29540, "licked": 6947, "tipped": 26787, "silva": 17472, "ricky": 26088, "narrator": 27218, "requests": 13871, "##ents": 17498, "greeted": 11816, "supernatural": 18887, "cow": 14199, "##wald": 27303, "lung": 16389, "refusing": 19600, "employer": 8756, "strait": 941, "gaelic": 21432, "liner": 25002, "##piece": 3019, "zoe": 12871, "sabha": 27870, "##mba": 1464, "driveway": 30340, "harvest": 19736, "prints": 28229, "bates": 9182, "reluctantly": 160, "threshold": 2217, "algebra": 8259, "ira": 27387, "wherever": 27632, "coupled": 28842, "240": 24418, "assumption": 28351, "picks": 8523, "##air": 29137, "designers": 28608, "raids": 24602, "gentlemen": 20762, "##ean": 18079, "roller": 28822, "blowing": 4570, "leipzig": 12712, "locks": 17275, "screw": 9081, "dressing": 22290, "strand": 3850, "##lings": 14474, "scar": 19976, "dwarf": 10546, "depicts": 12289, "##nu": 685, "nods": 29889, "##mine": 757, "differ": 211, "boris": 5497, "##eur": 23972, "yuan": 12882, "flip": 17226, "##gie": 21576, "mob": 12826, "invested": 3328, "questioning": 10092, "applying": 12367, "##ture": 27964, "shout": 15235, "##sel": 17183, "gameplay": 14261, "blamed": 8861, "illustrations": 19890, "bothered": 5173, "weakness": 17990, "rehabilitation": 18896, "##of": 25451, "##zes": 24848, "envelope": 11693, "rumors": 4831, "miners": 22933, "leicester": 25387, "subtle": 16601, "kerry": 23951, "##ico": 10571, "ferguson": 19424, "##fu": 26609, "premiership": 27042, "ne": 15087, "##cat": 12183, "bengali": 29725, "prof": 14852, "catches": 20785, "remnants": 13938, "dana": 23416, "##rily": 17118, "shouting": 2475, "presidents": 19034, "baltic": 25109, "ought": 21924, "ghosts": 9093, "dances": 22863, "sailors": 2473, "shirley": 2173, "fancy": 15640, "dominic": 23474, "##bie": 20782, "madonna": 5765, "##rick": 9339, "bark": 10754, "buttons": 10799, "gymnasium": 12004, "ashes": 27623, "liver": 25170, "toby": 18466, "oath": 27054, "providence": 14318, "doyle": 15772, "evangelical": 28177, "nixon": 21156, "cement": 498, "carnegie": 22655, "embarked": 177, "hatch": 1076, "surroundings": 26968, "guarantee": 9971, "needing": 15153, "pirate": 18283, "essence": 23592, "##bee": 19301, "filter": 1803, "crane": 1673, "hammond": 6098, "projected": 8848, "immune": 5077, "percy": 10065, "twelfth": 8522, "##ult": 26837, "regent": 7299, "doctoral": 13617, "damon": 8836, "mikhail": 11391, "##ichi": 6155, "lu": 15271, "critically": 26622, "elect": 20549, "realised": 24235, "abortion": 10415, "acute": 9019, "screening": 1941, "mythology": 30398, "steadily": 6621, "##fc": 25013, "frown": 7875, "nottingham": 25141, "kirk": 21079, "wa": 4503, "minneapolis": 11268, "##rra": 11084, "module": 16027, "algeria": 19616, "mc": 18914, "nautical": 30053, "encounters": 25157, "surprising": 15397, "statues": 625, "availability": 26028, "shirts": 1969, "pie": 883, "alma": 20995, "brows": 1295, "munster": 134, "mack": 2919, "soup": 14373, "crater": 14405, "tornado": 11130, "sanskrit": 18292, "cedar": 11849, "explosive": 8706, "bordered": 22915, "dixon": 10784, "planets": 29801, "stamp": 30061, "exam": 24313, "happily": 26735, "##bble": 15702, "carriers": 2964, "kidnapped": 10124, "##vis": 5512, "accommodation": 24441, "emigrated": 4594, "##met": 431, "knockout": 22008, "correspondent": 29027, "violation": 13108, "profits": 13155, "peaks": 14912, "lang": 21767, "specimen": 16360, "agenda": 1798, "ancestry": 6028, "pottery": 8715, "spelling": 17787, "equations": 8759, "obtaining": 17718, "ki": 25359, "linking": 11569, "1825": 28033, "debris": 1328, "asylum": 16870, "##20": 24226, "buddhism": 17116, "teddy": 24324, "##ants": 21067, "gazette": 8143, "##nger": 28212, "##sse": 8348, "dental": 8698, "eligibility": 26361, "utc": 3818, "fathers": 23721, "averaged": 14749, "zimbabwe": 26154, "francesco": 16052, "coloured": 28291, "hissed": 11790, "translator": 3902, "lynch": 11148, "mandate": 27046, "humanities": 23853, "mackenzie": 9805, "uniforms": 13711, "lin": 26515, "##iana": 4540, "##gio": 21300, "asset": 13412, "mhz": 1978, "fitting": 19002, "samantha": 23385, "genera": 25993, "wei": 7400, "rim": 6270, "beloved": 7616, "shark": 24095, "riot": 15229, "entities": 15526, "expressions": 1232, "indo": 14036, "carmen": 21975, "slipping": 9867, "owing": 6666, "abbot": 23991, "neighbor": 12521, "sidney": 28258, "##av": 11271, "rats": 872, "recommendations": 6346, "encouraging": 1012, "squadrons": 25682, "anticipated": 24827, "commanders": 17110, "conquered": 26682, "##oto": 4352, "donations": 13906, "diagnosed": 25375, "##mond": 13966, "divide": 26705, "##iva": 8429, "guessed": 25819, "decoration": 6130, "vernon": 12335, "auditorium": 22502, "revelation": 2197, "conversations": 23086,
[...]
